{
  "version": "1.0",
  "truncation": null,
  "padding": null,
  "added_tokens": [
    {
      "id": 0,
      "content": "<pad>",
      "single_word": false,
      "lstrip": false,
      "rstrip": false,
      "normalized": false,
      "special": true
    },
    {
      "id": 1,
      "content": "<unk>",
      "single_word": false,
      "lstrip": false,
      "rstrip": false,
      "normalized": false,
      "special": true
    },
    {
      "id": 2,
      "content": "<s>",
      "single_word": false,
      "lstrip": false,
      "rstrip": false,
      "normalized": false,
      "special": true
    },
    {
      "id": 3,
      "content": "</s>",
      "single_word": false,
      "lstrip": false,
      "rstrip": false,
      "normalized": false,
      "special": true
    }
  ],
  "normalizer": null,
  "pre_tokenizer": {
    "type": "ByteLevel",
    "add_prefix_space": false,
    "trim_offsets": true,
    "use_regex": true
  },
  "post_processor": {
    "type": "ByteLevel",
    "add_prefix_space": true,
    "trim_offsets": false,
    "use_regex": true
  },
  "decoder": {
    "type": "ByteLevel",
    "add_prefix_space": true,
    "trim_offsets": true,
    "use_regex": true
  },
  "model": {
    "type": "BPE",
    "dropout": null,
    "unk_token": null,
    "continuing_subword_prefix": null,
    "end_of_word_suffix": null,
    "fuse_unk": false,
    "byte_fallback": false,
    "ignore_merges": false,
    "vocab": {
      "<pad>": 0,
      "<unk>": 1,
      "<s>": 2,
      "</s>": 3,
      "!": 4,
      "\"": 5,
      "#": 6,
      "$": 7,
      "%": 8,
      "&": 9,
      "'": 10,
      "(": 11,
      ")": 12,
      "*": 13,
      "+": 14,
      ",": 15,
      "-": 16,
      ".": 17,
      "/": 18,
      "0": 19,
      "1": 20,
      "2": 21,
      "3": 22,
      "4": 23,
      "5": 24,
      "6": 25,
      "7": 26,
      "8": 27,
      "9": 28,
      ":": 29,
      ";": 30,
      "<": 31,
      "=": 32,
      ">": 33,
      "?": 34,
      "@": 35,
      "A": 36,
      "B": 37,
      "C": 38,
      "D": 39,
      "E": 40,
      "F": 41,
      "G": 42,
      "H": 43,
      "I": 44,
      "J": 45,
      "K": 46,
      "L": 47,
      "M": 48,
      "N": 49,
      "O": 50,
      "P": 51,
      "Q": 52,
      "R": 53,
      "S": 54,
      "T": 55,
      "U": 56,
      "V": 57,
      "W": 58,
      "X": 59,
      "Y": 60,
      "Z": 61,
      "[": 62,
      "\\": 63,
      "]": 64,
      "^": 65,
      "_": 66,
      "`": 67,
      "a": 68,
      "b": 69,
      "c": 70,
      "d": 71,
      "e": 72,
      "f": 73,
      "g": 74,
      "h": 75,
      "i": 76,
      "j": 77,
      "k": 78,
      "l": 79,
      "m": 80,
      "n": 81,
      "o": 82,
      "p": 83,
      "q": 84,
      "r": 85,
      "s": 86,
      "t": 87,
      "u": 88,
      "v": 89,
      "w": 90,
      "x": 91,
      "y": 92,
      "z": 93,
      "{": 94,
      "|": 95,
      "}": 96,
      "~": 97,
      "¡": 98,
      "¢": 99,
      "£": 100,
      "¤": 101,
      "¥": 102,
      "¦": 103,
      "§": 104,
      "¨": 105,
      "©": 106,
      "ª": 107,
      "«": 108,
      "¬": 109,
      "®": 110,
      "¯": 111,
      "°": 112,
      "±": 113,
      "²": 114,
      "³": 115,
      "´": 116,
      "µ": 117,
      "¶": 118,
      "·": 119,
      "¸": 120,
      "¹": 121,
      "º": 122,
      "»": 123,
      "¼": 124,
      "½": 125,
      "¾": 126,
      "¿": 127,
      "À": 128,
      "Á": 129,
      "Â": 130,
      "Ã": 131,
      "Ä": 132,
      "Å": 133,
      "Æ": 134,
      "Ç": 135,
      "È": 136,
      "É": 137,
      "Ê": 138,
      "Ë": 139,
      "Ì": 140,
      "Í": 141,
      "Î": 142,
      "Ï": 143,
      "Ð": 144,
      "Ñ": 145,
      "Ò": 146,
      "Ó": 147,
      "Ô": 148,
      "Õ": 149,
      "Ö": 150,
      "×": 151,
      "Ø": 152,
      "Ù": 153,
      "Ú": 154,
      "Û": 155,
      "Ü": 156,
      "Ý": 157,
      "Þ": 158,
      "ß": 159,
      "à": 160,
      "á": 161,
      "â": 162,
      "ã": 163,
      "ä": 164,
      "å": 165,
      "æ": 166,
      "ç": 167,
      "è": 168,
      "é": 169,
      "ê": 170,
      "ë": 171,
      "ì": 172,
      "í": 173,
      "î": 174,
      "ï": 175,
      "ð": 176,
      "ñ": 177,
      "ò": 178,
      "ó": 179,
      "ô": 180,
      "õ": 181,
      "ö": 182,
      "÷": 183,
      "ø": 184,
      "ù": 185,
      "ú": 186,
      "û": 187,
      "ü": 188,
      "ý": 189,
      "þ": 190,
      "ÿ": 191,
      "Ā": 192,
      "ā": 193,
      "Ă": 194,
      "ă": 195,
      "Ą": 196,
      "ą": 197,
      "Ć": 198,
      "ć": 199,
      "Ĉ": 200,
      "ĉ": 201,
      "Ċ": 202,
      "ċ": 203,
      "Č": 204,
      "č": 205,
      "Ď": 206,
      "ď": 207,
      "Đ": 208,
      "đ": 209,
      "Ē": 210,
      "ē": 211,
      "Ĕ": 212,
      "ĕ": 213,
      "Ė": 214,
      "ė": 215,
      "Ę": 216,
      "ę": 217,
      "Ě": 218,
      "ě": 219,
      "Ĝ": 220,
      "ĝ": 221,
      "Ğ": 222,
      "ğ": 223,
      "Ġ": 224,
      "ġ": 225,
      "Ģ": 226,
      "ģ": 227,
      "Ĥ": 228,
      "ĥ": 229,
      "Ħ": 230,
      "ħ": 231,
      "Ĩ": 232,
      "ĩ": 233,
      "Ī": 234,
      "ī": 235,
      "Ĭ": 236,
      "ĭ": 237,
      "Į": 238,
      "į": 239,
      "İ": 240,
      "ı": 241,
      "Ĳ": 242,
      "ĳ": 243,
      "Ĵ": 244,
      "ĵ": 245,
      "Ķ": 246,
      "ķ": 247,
      "ĸ": 248,
      "Ĺ": 249,
      "ĺ": 250,
      "Ļ": 251,
      "ļ": 252,
      "Ľ": 253,
      "ľ": 254,
      "Ŀ": 255,
      "ŀ": 256,
      "Ł": 257,
      "ł": 258,
      "Ń": 259,
      "--": 260,
      "----": 261,
      "--------": 262,
      "Ġt": 263,
      "----------------": 264,
      "in": 265,
      "Ġa": 266,
      "Ġth": 267,
      "==": 268,
      "er": 269,
      "on": 270,
      "re": 271,
      "--------------------------------": 272,
      "Ġw": 273,
      "Ġo": 274,
      "at": 275,
      "en": 276,
      "Ġs": 277,
      "Ġthe": 278,
      "Ġc": 279,
      "nd": 280,
      "ar": 281,
      "or": 282,
      "es": 283,
      "====": 284,
      "it": 285,
      "ing": 286,
      "ou": 287,
      "Ġin": 288,
      "Ġb": 289,
      "an": 290,
      "al": 291,
      "Ġf": 292,
      "Ġto": 293,
      "is": 294,
      "Ġp": 295,
      "Ġm": 296,
      "ion": 297,
      "Ġof": 298,
      "ro": 299,
      "Ġand": 300,
      "st": 301,
      "ed": 302,
      "Ġd": 303,
      "Ġwe": 304,
      "ent": 305,
      "ĠA": 306,
      "ll": 307,
      "Ġg": 308,
      "ur": 309,
      "om": 310,
      "ic": 311,
      "Ġy": 312,
      "ĠI": 313,
      "Ġh": 314,
      "Ġre": 315,
      "========": 316,
      "Ġl": 317,
      "ct": 318,
      "Ġthat": 319,
      "ve": 320,
      "as": 321,
      "ly": 322,
      "ĠC": 323,
      "ear": 324,
      "et": 325,
      "ĠS": 326,
      "------------------------------------------------": 327,
      "--------------------------------------------------------------------------------": 328,
      "Ġn": 329,
      "Ġyou": 330,
      "le": 331,
      "ver": 332,
      "Ġe": 333,
      "ch": 334,
      "ut": 335,
      "qu": 336,
      "us": 337,
      "Ġour": 338,
      "Ġon": 339,
      "ĠT": 340,
      "Ġfor": 341,
      "th": 342,
      "Ġbe": 343,
      "Ġis": 344,
      "ow": 345,
      "art": 346,
      "ill": 347,
      "Ġse": 348,
      "Ġwh": 349,
      "ig": 350,
      "im": 351,
      "ĠM": 352,
      "Ġqu": 353,
      "ay": 354,
      "id": 355,
      "================": 356,
      "Ġas": 357,
      "ment": 358,
      "ers": 359,
      "ith": 360,
      "ce": 361,
      "ation": 362,
      "ust": 363,
      "ĠD": 364,
      "Ġcon": 365,
      "Ġit": 366,
      "Ġst": 367,
      "Ġare": 368,
      "'s": 369,
      "est": 370,
      "Ġpro": 371,
      "Ġcom": 372,
      "ĠR": 373,
      "Ġwith": 374,
      "Ġex": 375,
      "Ġha": 376,
      "ĠW": 377,
      "ol": 378,
      "ere": 379,
      "Ġ[": 380,
      "Ġ-": 381,
      "oo": 382,
      "ess": 383,
      "ĠAnd": 384,
      "Ġmo": 385,
      "ri": 386,
      "pp": 387,
      "Ġu": 388,
      "ven": 389,
      "am": 390,
      "ue": 391,
      "Ġde": 392,
      "ir": 393,
      "ate": 394,
      "if": 395,
      "Ġyear": 396,
      "ld": 397,
      "Ġgro": 398,
      "ad": 399,
      "Ġ2": 400,
      "Ġan": 401,
      "ect": 402,
      "ĠE": 403,
      "rom": 404,
      "se": 405,
      "ĠIn": 406,
      "Ġne": 407,
      "ally": 408,
      "Ġab": 409,
      "ĠP": 410,
      "Ġfrom": 411,
      "ink": 412,
      "ot": 413,
      "ĠO": 414,
      "ĠB": 415,
      "Ġhave": 416,
      "ity": 417,
      "per": 418,
      "out": 419,
      "Ġr": 420,
      "igh": 421,
      "Ġquart": 422,
      "ke": 423,
      "uct": 424,
      "ort": 425,
      "il": 426,
      "Ġthink": 427,
      "ĠTh": 428,
      "Ġgrow": 429,
      "ss": 430,
      "ab": 431,
      "ive": 432,
      "ul": 433,
      "ĠG": 434,
      "Ġthis": 435,
      "ge": 436,
      "Ġquarter": 437,
      "Ġcont": 438,
      "ĠWe": 439,
      "yst": 440,
      "Ġabout": 441,
      "'re": 442,
      "ant": 443,
      "el": 444,
      "Ġmar": 445,
      "all": 446,
      "Ġat": 447,
      "ac": 448,
      "Ġsh": 449,
      "Ġexp": 450,
      "ĠN": 451,
      "Ġus": 452,
      "ure": 453,
      "Ġwill": 454,
      "================================": 455,
      "ap": 456,
      "duct": 457,
      "ould": 458,
      "earch": 459,
      "ook": 460,
      "ome": 461,
      "em": 462,
      "illion": 463,
      "ĠDi": 464,
      "Ġcomp": 465,
      "Ġ$": 466,
      "um": 467,
      "Ġup": 468,
      "Ġinc": 469,
      "ain": 470,
      "Ġ1": 471,
      "Ġreven": 472,
      "Ġwas": 473,
      "ustom": 474,
      "ast": 475,
      "ies": 476,
      "Ġmore": 477,
      "Ġ--": 478,
      "Ġgrowth": 479,
      "very": 480,
      "ĠRes": 481,
      "and": 482,
      "iness": 483,
      "ĠSo": 484,
      "usiness": 485,
      "ard": 486,
      "Ġgo": 487,
      "Ġor": 488,
      "Ġj": 489,
      "Ġ20": 490,
      "Ġint": 491,
      "ĠH": 492,
      "estion": 493,
      "Ġbusiness": 494,
      "ments": 495,
      "Ġdo": 496,
      "Ġcustom": 497,
      "orm": 498,
      "ĠResearch": 499,
      "Ġim": 500,
      "Ġthere": 501,
      "ong": 502,
      "fer": 503,
      "end": 504,
      "Ġsee": 505,
      "Ġal": 506,
      "Ġrevenue": 507,
      "act": 508,
      "ĠF": 509,
      "are": 510,
      "un": 511,
      "Ġquestion": 512,
      "Ġproduct": 513,
      "lo": 514,
      "Ġso": 515,
      "ĠAn": 516,
      "Ġad": 517,
      "Ġimp": 518,
      "Ġtr": 519,
      "Ġcontin": 520,
      "perat": 521,
      "ich": 522,
      "so": 523,
      "rou": 524,
      "Ġac": 525,
      "Ġ&": 526,
      "Ġover": 527,
      "han": 528,
      "ec": 529,
      "Ġv": 530,
      "Ġjust": 531,
      "Ġwhat": 532,
      "form": 533,
      "Ġby": 534,
      "pt": 535,
      "Ġsu": 536,
      "og": 537,
      "alyst": 538,
      "ans": 539,
      "ĠL": 540,
      "ance": 541,
      "ĠAnalyst": 542,
      "ket": 543,
      "li": 544,
      "gin": 545,
      "ip": 546,
      "Ġwor": 547,
      "Ġ3": 548,
      "Ġstr": 549,
      "Ġexpect": 550,
      "Ġall": 551,
      "ions": 552,
      "Ġma": 553,
      "ĠInc": 554,
      "ts": 555,
      "Ġpo": 556,
      "ter": 557,
      "Ġres": 558,
      "vic": 559,
      "Ġsome": 560,
      "ond": 561,
      "Ġper": 562,
      "ase": 563,
      "gh": 564,
      "ial": 565,
      "Ġinv": 566,
      "Ġcustomers": 567,
      "ind": 568,
      "isc": 569,
      "ĠQ": 570,
      "Ġpl": 571,
      "ision": 572,
      "Ġwhich": 573,
      "Ġvery": 574,
      "irst": 575,
      "Ġnot": 576,
      "Ġhigh": 577,
      "ations": 578,
      "Ġcan": 579,
      "Ġbillion": 580,
      "ings": 581,
      "Ġyour": 582,
      "age": 583,
      "Ġnew": 584,
      "Ġcl": 585,
      "ĠJ": 586,
      "Ġpart": 587,
      "xt": 588,
      "ime": 589,
      "Ġ201": 590,
      "ated": 591,
      "ther": 592,
      "Ġdri": 593,
      "Ġout": 594,
      "Ġsec": 595,
      "ore": 596,
      "vision": 597,
      "ine": 598,
      "Ġme": 599,
      "ased": 600,
      "Ġli": 601,
      "ight": 602,
      "Ġmarket": 603,
      "ide": 604,
      "ks": 605,
      "ĠDivision": 606,
      "AN": 607,
      "Ġen": 608,
      "Ġgoing": 609,
      "Ġte": 610,
      "rect": 611,
      "Ġlike": 612,
      "Ġincre": 613,
      "'ve": 614,
      "Ġthan": 615,
      "oud": 616,
      "Ġalso": 617,
      "Ġlook": 618,
      "ence": 619,
      "Ġwell": 620,
      "Ġapp": 621,
      "Ġle": 622,
      "king": 623,
      "ition": 624,
      "iz": 625,
      "Ġmargin": 626,
      "ber": 627,
      "Ġser": 628,
      "Ġsp": 629,
      "Ġhow": 630,
      "Ġnext": 631,
      "Ġwould": 632,
      "Ġgu": 633,
      "Ġcall": 634,
      "Ġpre": 635,
      "perator": 636,
      "ous": 637,
      "Ġfirst": 638,
      "Ġhas": 639,
      "Ġbut": 640,
      "Ġnow": 641,
      "Ġrec": 642,
      "ren": 643,
      "chn": 644,
      "ĠCE": 645,
      "ud": 646,
      "Ġstrong": 647,
      "ĠV": 648,
      "enter": 649,
      "vices": 650,
      "ist": 651,
      "ward": 652,
      "ĠCEO": 653,
      "FO": 654,
      "ata": 655,
      "olog": 656,
      "Ġbeen": 657,
      "Operator": 658,
      "our": 659,
      "Ġk": 660,
      "ff": 661,
      "anc": 662,
      "chnolog": 663,
      "one": 664,
      "Ġgre": 665,
      "ĠThe": 666,
      "ie": 667,
      "Ġthen": 668,
      "Ġreally": 669,
      "ific": 670,
      "Ġif": 671,
      "able": 672,
      "Ġthey": 673,
      "Ġun": 674,
      "ose": 675,
      "ĠCh": 676,
      "ory": 677,
      "oc": 678,
      "oun": 679,
      "ON": 680,
      "Ġag": 681,
      "ack": 682,
      "ĠDirect": 683,
      "Ġresul": 684,
      "ĠMic": 685,
      "op": 686,
      "Ġany": 687,
      "Ġcontinue": 688,
      "ign": 689,
      "ĠDirector": 690,
      "Ġdata": 691,
      "Ġsa": 692,
      "ĠY": 693,
      "Ġinvest": 694,
      "Ġinto": 695,
      "Ġcloud": 696,
      "Ġlast": 697,
      "Ġco": 698,
      "pport": 699,
      "Ġta": 700,
      "Ġtal": 701,
      "Ġmillion": 702,
      "00": 703,
      "chnology": 704,
      "ood": 705,
      "res": 706,
      "erm": 707,
      "'ll": 708,
      "ving": 709,
      "ile": 710,
      "ning": 711,
      "any": 712,
      "Ġsecond": 713,
      "Ġtime": 714,
      "ens": 715,
      "ior": 716,
      "ities": 717,
      "Ġone": 718,
      "Ġtrans": 719,
      "year": 720,
      "cri": 721,
      "ross": 722,
      "Ġforward": 723,
      "cl": 724,
      "Ġbit": 725,
      "Ġwhere": 726,
      "oth": 727,
      "Ġcontinu": 728,
      "day": 729,
      "Ġcur": 730,
      "ystem": 731,
      "Ġthose": 732,
      "ĠU": 733,
      "Ġind": 734,
      "Ġdem": 735,
      "Ġterm": 736,
      "ĠSen": 737,
      "rough": 738,
      "ĠBut": 739,
      "HE": 740,
      "ft": 741,
      "orp": 742,
      "ĠSenior": 743,
      "'t": 744,
      "be": 745,
      "Ġget": 746,
      "Ġother": 747,
      "ep": 748,
      "cess": 749,
      "Ġproducts": 750,
      "Ġchan": 751,
      "ric": 752,
      "Ġcap": 753,
      "ility": 754,
      "ell": 755,
      "Ġpoin": 756,
      "over": 757,
      "Ġear": 758,
      "ĠSt": 759,
      "use": 760,
      "Ġbu": 761,
      "Ġadd": 762,
      "ious": 763,
      "ĠCFO": 764,
      "Ġwere": 765,
      "Ġdemand": 766,
      "orpor": 767,
      "ead": 768,
      "Ġshare": 769,
      "Ġtalk": 770,
      "ite": 771,
      "amp": 772,
      "Ġ4": 773,
      "Ġtheir": 774,
      "Ġresults": 775,
      "Ġmay": 776,
      "own": 777,
      "ĠK": 778,
      "Ġ5": 779,
      "ry": 780,
      "Ġhad": 781,
      "vers": 782,
      "Ġrem": 783,
      "Ġthrough": 784,
      "Ġdif": 785,
      "Ġact": 786,
      "ially": 787,
      "ident": 788,
      "uch": 789,
      "Ġcould": 790,
      "ris": 791,
      "eter": 792,
      "Ġbec": 793,
      "Ġfe": 794,
      "ĠIt": 795,
      "iv": 796,
      "Ġthese": 797,
      "Ġtoday": 798,
      "VI": 799,
      "etw": 800,
      "perating": 801,
      "Ġgross": 802,
      "Ġwork": 803,
      "elp": 804,
      "cript": 805,
      "Ġwhen": 806,
      "Ġcomm": 807,
      "Ġacross": 808,
      "Ġhelp": 809,
      "ced": 810,
      "ference": 811,
      "look": 812,
      "Ġgood": 813,
      "nder": 814,
      "ĠYou": 815,
      "ail": 816,
      "ame": 817,
      "ach": 818,
      "gan": 819,
      "Ġcurren": 820,
      "ef": 821,
      "Ġcons": 822,
      "itt": 823,
      "Ġimpact": 824,
      "formance": 825,
      "ors": 826,
      "Ġterms": 827,
      "ause": 828,
      "Ġboth": 829,
      "Ġstart": 830,
      "ics": 831,
      "Ġincl": 832,
      "AP": 833,
      "Ġrep": 834,
      "ag": 835,
      "ĠSu": 836,
      "Ġdown": 837,
      "ĠAS": 838,
      "io": 839,
      "ull": 840,
      "ener": 841,
      "her": 842,
      "Ġmake": 843,
      "gr": 844,
      "ecut": 845,
      "RA": 846,
      "RE": 847,
      "Ġinclud": 848,
      "old": 849,
      "Ġline": 850,
      "ĠTHE": 851,
      "ital": 852,
      "Ġgreat": 853,
      "ord": 854,
      "ix": 855,
      "Th": 856,
      "Ġcost": 857,
      "ron": 858,
      "Ġlot": 859,
      "Than": 860,
      "Ġdiffer": 861,
      "ware": 862,
      "ĠMD": 863,
      "ress": 864,
      "Ġwant": 865,
      "And": 866,
      "ank": 867,
      "Ġi": 868,
      "ĠMicro": 869,
      "ĠCorpor": 870,
      "Ġseg": 871,
      "alf": 872,
      "ĠMar": 873,
      "Ġprov": 874,
      "Ġlong": 875,
      "ays": 876,
      "ĠCo": 877,
      "lic": 878,
      "ower": 879,
      "Ġsign": 880,
      "Ġback": 881,
      "Ġfin": 882,
      "ĠVP": 883,
      "Ġnum": 884,
      "================================================": 885,
      "================================================================================": 886,
      "ĠEU": 887,
      "tain": 888,
      "Ġopport": 889,
      "Ġopportun": 890,
      "oog": 891,
      "ĠTe": 892,
      "ace": 893,
      "ler": 894,
      "ough": 895,
      "oogle": 896,
      "Ġevery": 897,
      "Ġend": 898,
      "ble": 899,
      "Ġ6": 900,
      "round": 901,
      "ĠGoogle": 902,
      "Ġsay": 903,
      "Ġhalf": 904,
      "ĠCorporation": 905,
      "Ġmuch": 906,
      "ystems": 907,
      "AAP": 908,
      "ade": 909,
      "PU": 910,
      "ocus": 911,
      "ĠIN": 912,
      "Ġperformance": 913,
      "ĠApp": 914,
      "uring": 915,
      "Ġkind": 916,
      "ary": 917,
      "Ġright": 918,
      "Ġoperating": 919,
      "VID": 920,
      "Ġfocus": 921,
      "ĠAm": 922,
      "ash": 923,
      "Ġ10": 924,
      "Ġimpro": 925,
      "atform": 926,
      "Ġann": 927,
      "'m": 928,
      "20": 929,
      "Ġch": 930,
      "Ġunder": 931,
      "Ġstate": 932,
      "Ġbecause": 933,
      "vel": 934,
      "ancial": 935,
      "os": 936,
      "Ġcenter": 937,
      "Ġlitt": 938,
      "Ġlittle": 939,
      "ĠPres": 940,
      "ĠPresident": 941,
      "ates": 942,
      "Ġguid": 943,
      "Ġaround": 944,
      "av": 945,
      "Ġseeing": 946,
      "Ġrel": 947,
      "vious": 948,
      "Ġmod": 949,
      "Ġfl": 950,
      "Ġmost": 951,
      "arg": 952,
      "Ġfact": 953,
      "pris": 954,
      "Ġcustomer": 955,
      "Ġdisc": 956,
      "ĠCap": 957,
      "Ġcomes": 958,
      "ĠDe": 959,
      "Ġplatform": 960,
      "Ġcomput": 961,
      "Ġass": 962,
      "ph": 963,
      "ateg": 964,
      "Ġhigher": 965,
      "ertain": 966,
      "Yes": 967,
      "ĠCom": 968,
      "ION": 969,
      "LC": 970,
      "Ġdriven": 971,
      "Ġthings": 972,
      "ĠiP": 973,
      "olut": 974,
      "ĠOur": 975,
      "RAM": 976,
      "ily": 977,
      "oll": 978,
      "ason": 979,
      "In": 980,
      "celer": 981,
      "Ġpoint": 982,
      "ount": 983,
      "Ġappro": 984,
      "Ġsaid": 985,
      "ative": 986,
      "ificant": 987,
      "%.": 988,
      "pect": 989,
      "bs": 990,
      "ild": 991,
      "Ġthem": 992,
      "Ġimport": 993,
      "LI": 994,
      "yn": 995,
      "cy": 996,
      "Ġmix": 997,
      "Ġsignificant": 998,
      "ĠDRAM": 999,
      "Ġagain": 1000,
      "Ġworld": 1001,
      "Ġnumber": 1002,
      "Ġfull": 1003,
      "Ġservices": 1004,
      "looking": 1005,
      "ffic": 1006,
      "Ġla": 1007,
      "ak": 1008,
      "Ġindust": 1009,
      "Ġactu": 1010,
      "ĠTechnology": 1011,
      "AND": 1012,
      "Ġenter": 1013,
      "urn": 1014,
      "Ġdeli": 1015,
      "Ġoff": 1016,
      "ĠWh": 1017,
      "ales": 1018,
      "ĠNAND": 1019,
      "Ġdifferent": 1020,
      "RI": 1021,
      "Ġlevel": 1022,
      "Ġpric": 1023,
      "Ġgam": 1024,
      "velo": 1025,
      "ĠThis": 1026,
      "cent": 1027,
      "Ġbas": 1028,
      "lease": 1029,
      "Ġmon": 1030,
      "Ġno": 1031,
      "Ġkn": 1032,
      "eop": 1033,
      "Ġcash": 1034,
      "Ġneed": 1035,
      "Ġ7": 1036,
      "ately": 1037,
      "ire": 1038,
      "Ġimportant": 1039,
      "Ġyears": 1040,
      "%,": 1041,
      "ĠAs": 1042,
      "Ġ2019": 1043,
      "eve": 1044,
      "Ġtechnology": 1045,
      "etwor": 1046,
      "ollow": 1047,
      "Ġway": 1048,
      "ird": 1049,
      "Ġstill": 1050,
      "Ġexper": 1051,
      "ular": 1052,
      "Ġro": 1053,
      "ĠInt": 1054,
      "prise": 1055,
      "Ġfollow": 1056,
      "ĠEx": 1057,
      "Ġsupp": 1058,
      "isco": 1059,
      "ruct": 1060,
      "Ġrate": 1061,
      "no": 1062,
      "Ġport": 1063,
      "Ġguidance": 1064,
      "Ġbig": 1065,
      "Ġpos": 1066,
      "Ġbuild": 1067,
      "Ġob": 1068,
      "unch": 1069,
      "rap": 1070,
      "Ġgener": 1071,
      "Ġbeli": 1072,
      "Ġpri": 1073,
      "ĠAl": 1074,
      "Ġdevelo": 1075,
      "ĠApple": 1076,
      "ĠAN": 1077,
      "viously": 1078,
      "iew": 1079,
      "Ex": 1080,
      "Ġsales": 1081,
      "Ġacceler": 1082,
      "Ġbased": 1083,
      "Ġoverall": 1084,
      "Ġknow": 1085,
      "eople": 1086,
      ".,": 1087,
      "Ġreal": 1088,
      "vent": 1089,
      "anom": 1090,
      "Ġramp": 1091,
      "Ġrecord": 1092,
      "Ġchang": 1093,
      "ree": 1094,
      "ating": 1095,
      "We": 1096,
      "ited": 1097,
      "Ġtake": 1098,
      "ty": 1099,
      "soft": 1100,
      "Ġdes": 1101,
      "ĠCO": 1102,
      "ob": 1103,
      "Ġbelieve": 1104,
      "its": 1105,
      "Ġnon": 1106,
      "vice": 1107,
      "Ġlaunch": 1108,
      "ĠCisco": 1109,
      "nings": 1110,
      "ĠAI": 1111,
      "Ġshould": 1112,
      "Ġpartn": 1113,
      "Our": 1114,
      "oin": 1115,
      "iscal": 1116,
      "Ġstatements": 1117,
      "ED": 1118,
      "Ġpartic": 1119,
      "Ġpeople": 1120,
      "Ġexperi": 1121,
      "Ġprocess": 1122,
      "ĠRe": 1123,
      "cal": 1124,
      "up": 1125,
      "Ġfinancial": 1126,
      "raph": 1127,
      "Ġbeing": 1128,
      "ability": 1129,
      "emory": 1130,
      "ention": 1131,
      "Ġlear": 1132,
      "organ": 1133,
      "ues": 1134,
      "Ġdon": 1135,
      "Ġlead": 1136,
      "man": 1137,
      "Ġannoun": 1138,
      "rans": 1139,
      "Ġman": 1140,
      "Ġmean": 1141,
      "ern": 1142,
      "Ġbr": 1143,
      "anometer": 1144,
      "gress": 1145,
      "Ġsegment": 1146,
      "Ġdeliver": 1147,
      "GAAP": 1148,
      "ĠIntel": 1149,
      "com": 1150,
      "ful": 1151,
      "tr": 1152,
      "Ġaut": 1153,
      "vert": 1154,
      "Ġbet": 1155,
      "ne": 1156,
      "Ġactually": 1157,
      "Ġdevelop": 1158,
      "anies": 1159,
      "ĠMicrosoft": 1160,
      "Ġimprove": 1161,
      "Ġgrew": 1162,
      "ĠComp": 1163,
      "uc": 1164,
      "lob": 1165,
      "ranscript": 1166,
      "ĠGPU": 1167,
      "Ġteam": 1168,
      "ting": 1169,
      "Ġtre": 1170,
      "Ġincrease": 1171,
      "Ġnetwor": 1172,
      "ES": 1173,
      "Ġapplic": 1174,
      "Ġside": 1175,
      "Ġprof": 1176,
      "quent": 1177,
      "ĠMicron": 1178,
      "Ġfiscal": 1179,
      "Ġmaybe": 1180,
      "ĠEUV": 1181,
      "Ġinvent": 1182,
      "ater": 1183,
      "Ġprior": 1184,
      "hone": 1185,
      "Ġtalked": 1186,
      "les": 1187,
      "ick": 1188,
      "Ġgive": 1189,
      "ether": 1190,
      "Ġeven": 1191,
      "ize": 1192,
      "Ġmention": 1193,
      "olio": 1194,
      "folio": 1195,
      "ual": 1196,
      "Ġcurrent": 1197,
      "Ġindustry": 1198,
      "gth": 1199,
      "Ġke": 1200,
      "agement": 1201,
      "AL": 1202,
      "Ġconst": 1203,
      "ĠLLC": 1204,
      "lect": 1205,
      "Ġcontinued": 1206,
      "Ġcompanies": 1207,
      "Thank": 1208,
      "Ġportfolio": 1209,
      "Ġar": 1210,
      "ical": 1211,
      "Ġopportunity": 1212,
      "ĠPC": 1213,
      "NT": 1214,
      "iven": 1215,
      "ENT": 1216,
      "Ġincreased": 1217,
      "IN": 1218,
      "nanometer": 1219,
      "Ġgrowing": 1220,
      "Ġincluding": 1221,
      "Ġsupply": 1222,
      "Ġcoming": 1223,
      "Ġ2018": 1224,
      "air": 1225,
      "ina": 1226,
      "Ġsaw": 1227,
      "Ġprovid": 1228,
      "Ġenterprise": 1229,
      "LE": 1230,
      "ult": 1231,
      "Ġsoft": 1232,
      "ANY": 1233,
      "ange": 1234,
      "Ġbetter": 1235,
      "vanc": 1236,
      "Ġdecl": 1237,
      "term": 1238,
      "cial": 1239,
      "Ġ9": 1240,
      "roup": 1241,
      "Ġprogress": 1242,
      "Ġspec": 1243,
      "Ġbasis": 1244,
      "Ġreg": 1245,
      "ures": 1246,
      "tal": 1247,
      "formation": 1248,
      "Ġlearning": 1249,
      "Ġmob": 1250,
      "ĠEqu": 1251,
      "Ġsl": 1252,
      "ecutive": 1253,
      "Ġmentioned": 1254,
      "Ġmargins": 1255,
      "imately": 1256,
      "rength": 1257,
      "itive": 1258,
      "Ġbusinesses": 1259,
      "ĠExecutive": 1260,
      "SC": 1261,
      "Ġmemory": 1262,
      "RAN": 1263,
      "Ġsequent": 1264,
      "EC": 1265,
      "ML": 1266,
      "hip": 1267,
      "Ġstrength": 1268,
      "PT": 1269,
      "cur": 1270,
      "ĠTRAN": 1271,
      "RIPT": 1272,
      "SCRIPT": 1273,
      "ĠTRANSCRIPT": 1274,
      "ĠAd": 1275,
      "Ġcre": 1276,
      "AT": 1277,
      "Ġvers": 1278,
      "Ġthird": 1279,
      "Ġpr": 1280,
      "Ġsupport": 1281,
      "Ġmy": 1282,
      "Ġmonth": 1283,
      "ple": 1284,
      "Ġben": 1285,
      "Ġstrateg": 1286,
      "Ġtotal": 1287,
      "lobal": 1288,
      "Ġsolut": 1289,
      "Ġhere": 1290,
      "Ġinventory": 1291,
      "Ġincreas": 1292,
      "fore": 1293,
      "ĠSec": 1294,
      "Ġseen": 1295,
      "Ġsoftware": 1296,
      "Ġmobile": 1297,
      "urity": 1298,
      "ĠThat": 1299,
      "Ġgaming": 1300,
      "Ġris": 1301,
      "Ġsort": 1302,
      "ĠAP": 1303,
      "vanced": 1304,
      "ercial": 1305,
      "Ġcour": 1306,
      "Ġenv": 1307,
      "Ġref": 1308,
      "iron": 1309,
      "ĠTranscript": 1310,
      "Ġsm": 1311,
      "Ġval": 1312,
      "Ġclo": 1313,
      "ows": 1314,
      "Ġassum": 1315,
      "Ġenviron": 1316,
      "con": 1317,
      "lay": 1318,
      "stand": 1319,
      "bin": 1320,
      "Ġmany": 1321,
      "ĠIR": 1322,
      "Ġinvestments": 1323,
      "az": 1324,
      "Ġret": 1325,
      "Ġcourse": 1326,
      "nov": 1327,
      "Ġdid": 1328,
      "arge": 1329,
      "Ġspend": 1330,
      "Ġbenef": 1331,
      "Ġconference": 1332,
      "Ġdep": 1333,
      "Ġinnov": 1334,
      "Ġlet": 1335,
      "ĠASML": 1336,
      "Ġav": 1337,
      "rian": 1338,
      "Ġpoints": 1339,
      "Ġapprox": 1340,
      "Ġcompet": 1341,
      "Ġem": 1342,
      "ĠBank": 1343,
      "Ġpercent": 1344,
      "Ġindic": 1345,
      "Ġship": 1346,
      "Ġord": 1347,
      "ĠChina": 1348,
      "Ġtrend": 1349,
      "ject": 1350,
      "ense": 1351,
      "Ġdou": 1352,
      "ption": 1353,
      "Ġannounced": 1354,
      "ĠSystems": 1355,
      "zure": 1356,
      "Ġincome": 1357,
      "Ġavail": 1358,
      "Ġapproximately": 1359,
      "MP": 1360,
      "Ġpartners": 1361,
      "Ġobviously": 1362,
      "uss": 1363,
      "ĠAzure": 1364,
      "ved": 1365,
      "Ġpers": 1366,
      "oment": 1367,
      "Ġmaking": 1368,
      "Ġaddition": 1369,
      "Ġam": 1370,
      "arily": 1371,
      "Ġdig": 1372,
      "Ġchanges": 1373,
      "IA": 1374,
      "ves": 1375,
      "Ġlarge": 1376,
      "Ġexpected": 1377,
      "Ġremain": 1378,
      "Ġfour": 1379,
      "Ġview": 1380,
      "Ġmoment": 1381,
      "Ġmarkets": 1382,
      "ĠiPhone": 1383,
      "Ġversus": 1384,
      "Ġ2020": 1385,
      "VIDIA": 1386,
      "Ġeff": 1387,
      "Ġdriving": 1388,
      "Ġmade": 1389,
      "Ġexecut": 1390,
      "Ġparticular": 1391,
      "Ġlower": 1392,
      "ional": 1393,
      "Ġplan": 1394,
      "Ġspecific": 1395,
      "Ġcurrency": 1396,
      "Ġmodel": 1397,
      "So": 1398,
      "Ġgiven": 1399,
      "Ġhe": 1400,
      "Ġservice": 1401,
      "Ġcomputing": 1402,
      "IS": 1403,
      "ĠBo": 1404,
      "Ġrecent": 1405,
      "'d": 1406,
      "19": 1407,
      "ering": 1408,
      "Ġhapp": 1409,
      "ically": 1410,
      "Ġquarters": 1411,
      "Ġcontent": 1412,
      "ib": 1413,
      "enc": 1414,
      "Ġcou": 1415,
      "loy": 1416,
      "Ġago": 1417,
      "vest": 1418,
      "ĠCl": 1419,
      "lier": 1420,
      "Ġrevenues": 1421,
      "Ġdiscuss": 1422,
      "Ġdoes": 1423,
      "ization": 1424,
      "OR": 1425,
      "ĠRE": 1426,
      "vertis": 1427,
      "CA": 1428,
      "Ġapplications": 1429,
      "Ġworking": 1430,
      "Ġenvironment": 1431,
      "ized": 1432,
      "CE": 1433,
      "son": 1434,
      "Ġturn": 1435,
      "ube": 1436,
      "Ġreason": 1437,
      "olid": 1438,
      "ĠAPP": 1439,
      "BLE": 1440,
      "uture": 1441,
      "Ġonly": 1442,
      "ĠOR": 1443,
      "The": 1444,
      "LICA": 1445,
      "ĠCOMP": 1446,
      "ĠAPPLICA": 1447,
      "ĠCOMPANY": 1448,
      "ĠAPPLICABLE": 1449,
      "Tube": 1450,
      "Ġconsum": 1451,
      "gram": 1452,
      "ĠCapEx": 1453,
      "Ġsame": 1454,
      "ĠMan": 1455,
      "ia": 1456,
      "Ġfuture": 1457,
      "Ġareas": 1458,
      "und": 1459,
      "ĠNVIDIA": 1460,
      "Ġcouple": 1461,
      "Ġcompany": 1462,
      "ĠYouTube": 1463,
      "ĠEP": 1464,
      "Ġcommercial": 1465,
      "Ġquestions": 1466,
      "Ġconstant": 1467,
      "ys": 1468,
      "Ġcertain": 1469,
      "Ġrange": 1470,
      "Ġadvertis": 1471,
      "Ġflow": 1472,
      "itect": 1473,
      "chitect": 1474,
      "ynam": 1475,
      "Ġguess": 1476,
      "pl": 1477,
      "Ġinf": 1478,
      "Ġhard": 1479,
      "Ġvalue": 1480,
      "ub": 1481,
      "65": 1482,
      "ems": 1483,
      "Ġcontinues": 1484,
      "cale": 1485,
      "Ġinter": 1486,
      "Ġearnings": 1487,
      "Ġfocused": 1488,
      "but": 1489,
      "ible": 1490,
      "Ġcapac": 1491,
      "yp": 1492,
      "Ġ2017": 1493,
      "itions": 1494,
      "Ġprogram": 1495,
      "Ġexpand": 1496,
      "ass": 1497,
      "Ġprim": 1498,
      "Ġinst": 1499,
      "ribut": 1500,
      "Ġincreasing": 1501,
      "Ġreflect": 1502,
      "fter": 1503,
      "red": 1504,
      "isa": 1505,
      "icip": 1506,
      "Ġdoing": 1507,
      "Ġunderstand": 1508,
      "Ġearlier": 1509,
      "Ġposition": 1510,
      "head": 1511,
      "Ġexc": 1512,
      "abet": 1513,
      "du": 1514,
      "Ġvol": 1515,
      "Thanks": 1516,
      "Ġfeel": 1517,
      "read": 1518,
      "phabet": 1519,
      "Ġsystems": 1520,
      "Ġdrive": 1521,
      "Ġlooking": 1522,
      "ĠInvest": 1523,
      "Ġop": 1524,
      "Ġwee": 1525,
      "urch": 1526,
      "Ġcomment": 1527,
      "Ġuse": 1528,
      "Ġcapacity": 1529,
      "Ġahead": 1530,
      "Ġearly": 1531,
      "Ġarchitect": 1532,
      "Ġduring": 1533,
      "Ġsecurity": 1534,
      "ice": 1535,
      "ared": 1536,
      "Ġ8": 1537,
      "Ġpret": 1538,
      "Ġprovide": 1539,
      "ĠCompany": 1540,
      "een": 1541,
      "road": 1542,
      "ish": 1543,
      "omet": 1544,
      "Ġserver": 1545,
      "ost": 1546,
      "Ġbase": 1547,
      "Ġcapital": 1548,
      "Ġwhile": 1549,
      "Ġable": 1550,
      "te": 1551,
      "Ġed": 1552,
      "Ġusers": 1553,
      "etween": 1554,
      "Ġbring": 1555,
      "ci": 1556,
      "ark": 1557,
      "ĠSer": 1558,
      "azon": 1559,
      "Ġpretty": 1560,
      "Ġent": 1561,
      "Ġbetween": 1562,
      "Ġsubs": 1563,
      "ound": 1564,
      "Ġtool": 1565,
      "urities": 1566,
      "Ġwho": 1567,
      "Ġconf": 1568,
      "Ġcome": 1569,
      "ptions": 1570,
      "Ġpercentage": 1571,
      "BS": 1572,
      "Ġafter": 1573,
      "ĠOffic": 1574,
      "Ġmult": 1575,
      "uth": 1576,
      "ĠHead": 1577,
      "Ġavailable": 1578,
      "ĠX": 1579,
      "Ġsomet": 1580,
      "Ġfourth": 1581,
      "Ġsolutions": 1582,
      "alth": 1583,
      "resent": 1584,
      "Ġfew": 1585,
      "Ġmach": 1586,
      "ying": 1587,
      "ably": 1588,
      "ĠHold": 1589,
      "oint": 1590,
      "ĠCloud": 1591,
      "based": 1592,
      "ĠAlphabet": 1593,
      "icha": 1594,
      "Ch": 1595,
      "Ġreport": 1596,
      "ĠCapital": 1597,
      "Ġmomentum": 1598,
      "ĠMorgan": 1599,
      "Ġsequentially": 1600,
      "Ġdouble": 1601,
      "Ġsure": 1602,
      "enses": 1603,
      "time": 1604,
      "Ġmove": 1605,
      "Ġclear": 1606,
      "ĠAmazon": 1607,
      "rast": 1608,
      "set": 1609,
      "Ġbroad": 1610,
      "ang": 1611,
      "arter": 1612,
      "Ġpricing": 1613,
      "Ġfactors": 1614,
      "hing": 1615,
      "thing": 1616,
      "ivity": 1617,
      "cast": 1618,
      "Ġdevices": 1619,
      "Ġits": 1620,
      "Ġrun": 1621,
      "elly": 1622,
      "ley": 1623,
      "Ġado": 1624,
      "Ġwond": 1625,
      "Ġexpectations": 1626,
      "ĠASP": 1627,
      "ructure": 1628,
      "Ġopen": 1629,
      "Ġput": 1630,
      "ĠCall": 1631,
      "Ġdec": 1632,
      "Ġinvestment": 1633,
      "Ġdue": 1634,
      "icon": 1635,
      "Ġopportunities": 1636,
      "ĠDevices": 1637,
      "Ġexperience": 1638,
      "Ġprofit": 1639,
      "ĠEquity": 1640,
      "ĠPro": 1641,
      "Ġacc": 1642,
      "Ġrelative": 1643,
      "TE": 1644,
      "jor": 1645,
      "ya": 1646,
      "Ġsim": 1647,
      "Ġcy": 1648,
      "ynamics": 1649,
      "ely": 1650,
      "nect": 1651,
      "od": 1652,
      "uters": 1653,
      "FE": 1654,
      "ĠMark": 1655,
      "rastructure": 1656,
      "wo": 1657,
      "acy": 1658,
      "Ġthough": 1659,
      "ĠEUR": 1660,
      "IONS": 1661,
      "ATION": 1662,
      "Ġ365": 1663,
      "Ġkey": 1664,
      "Ġvar": 1665,
      "ĠOn": 1666,
      "Ġexpenses": 1667,
      "Ġexamp": 1668,
      "ĠUS": 1669,
      "ĠHolding": 1670,
      "Ġlarg": 1671,
      "rel": 1672,
      "Ġbest": 1673,
      "Ġmajor": 1674,
      "other": 1675,
      "err": 1676,
      "Ġoffer": 1677,
      "Ġrisks": 1678,
      "Ġdet": 1679,
      "Ġsegments": 1680,
      "Ġprimarily": 1681,
      "ĠCON": 1682,
      "Ġext": 1683,
      "Ġunc": 1684,
      "Ġinnovation": 1685,
      "Ġcount": 1686,
      "Ġhead": 1687,
      "ĠMA": 1688,
      "REN": 1689,
      "THE": 1690,
      "eb": 1691,
      "Ġgot": 1692,
      "ĠCAL": 1693,
      "FOR": 1694,
      "ĠANY": 1695,
      "ĠAdvanced": 1696,
      "FEREN": 1697,
      "Ġuncertain": 1698,
      "ĠCALL": 1699,
      "FERENCE": 1700,
      "Ġsuc": 1701,
      "Ġpub": 1702,
      "Ġacqu": 1703,
      "Ġdesign": 1704,
      "Ġsomething": 1705,
      "ĠStan": 1706,
      "Ġhealth": 1707,
      "omson": 1708,
      "Ġbegin": 1709,
      "tern": 1710,
      "ĠMarket": 1711,
      "ĠReuters": 1712,
      "Ġvolum": 1713,
      "Ġtop": 1714,
      "Ġnear": 1715,
      "Ġintro": 1716,
      "10": 1717,
      "Ġtim": 1718,
      "Ġsearch": 1719,
      "Ġequ": 1720,
      "pping": 1721,
      "Ġdeep": 1722,
      "Ġanother": 1723,
      "Ġmid": 1724,
      "ĠStanley": 1725,
      "ied": 1726,
      "ational": 1727,
      "Ġwithin": 1728,
      "dig": 1729,
      "Ġthing": 1730,
      "ĠIf": 1731,
      "verage": 1732,
      "clud": 1733,
      "Ġusing": 1734,
      "Ġpress": 1735,
      "Ġoffset": 1736,
      "Ġmachine": 1737,
      "ein": 1738,
      "lient": 1739,
      "ift": 1740,
      "Ġguys": 1741,
      "Ġfast": 1742,
      "sw": 1743,
      "ingle": 1744,
      "ilities": 1745,
      "Ġtransition": 1746,
      "ĠSecurities": 1747,
      "ĠBoard": 1748,
      "Ġask": 1749,
      "Ġnetwork": 1750,
      "Ġset": 1751,
      "lex": 1752,
      "ĠGlobal": 1753,
      "ĠChair": 1754,
      "ĠChairman": 1755,
      "AC": 1756,
      "Ġweb": 1757,
      "ĠPart": 1758,
      "Ġchange": 1759,
      "Ġspending": 1760,
      "Ġsuccess": 1761,
      "Ġrelease": 1762,
      "ĠThere": 1763,
      "stein": 1764,
      "Ġwhy": 1765,
      "Ġgetting": 1766,
      "Ġmonths": 1767,
      "17": 1768,
      "Ġph": 1769,
      "ĠInst": 1770,
      "ĠGroup": 1771,
      "hn": 1772,
      "nel": 1773,
      "atch": 1774,
      "itch": 1775,
      "inder": 1776,
      "Ġoper": 1777,
      "Ġseason": 1778,
      "Ġquite": 1779,
      "cription": 1780,
      "Ġexample": 1781,
      "ĠSEC": 1782,
      "Ġquick": 1783,
      "Ġ30": 1784,
      "Ġautom": 1785,
      "kay": 1786,
      "Ġinformation": 1787,
      "raphics": 1788,
      "Ġpast": 1789,
      "Ġdi": 1790,
      "ants": 1791,
      "Ġtax": 1792,
      "bers": 1793,
      "leased": 1794,
      "ĠOr": 1795,
      "ĠThank": 1796,
      "Ġcar": 1797,
      "Ġcomments": 1798,
      "ĠEV": 1799,
      "ĠKr": 1800,
      "Ġbenefit": 1801,
      "18": 1802,
      "Ġ'": 1803,
      "Ġfore": 1804,
      "Ġassumptions": 1805,
      "ined": 1806,
      "ify": 1807,
      "ĠFin": 1808,
      "ĠManagement": 1809,
      "bably": 1810,
      "Ġbefore": 1811,
      "Ġ2016": 1812,
      "Ġdone": 1813,
      "load": 1814,
      "Ġoutlook": 1815,
      "Ġinfrastructure": 1816,
      "Ġinterest": 1817,
      "Ġbal": 1818,
      "Ġproduction": 1819,
      "Ġeffect": 1820,
      "digit": 1821,
      "Ġwhether": 1822,
      "ries": 1823,
      "Ġplatforms": 1824,
      "pective": 1825,
      "reat": 1826,
      "ĠIS": 1827,
      "Ġstand": 1828,
      "ready": 1829,
      "ove": 1830,
      "ines": 1831,
      "ets": 1832,
      "ograph": 1833,
      "Ġmeas": 1834,
      "Ġchannel": 1835,
      "ways": 1836,
      "Ġpower": 1837,
      "ĠPr": 1838,
      "ĠNon": 1839,
      "jay": 1840,
      "ases": 1841,
      "ock": 1842,
      "Ġprobably": 1843,
      "Ġstrategy": 1844,
      "Ġwa": 1845,
      "ĠFirst": 1846,
      "Ġacquis": 1847,
      "ĠMarkets": 1848,
      "Ġresult": 1849,
      "30": 1850,
      "Ġtwo": 1851,
      "ĠCan": 1852,
      "ĠFor": 1853,
      "000": 1854,
      "Ġwebs": 1855,
      "Ġtrends": 1856,
      "mi": 1857,
      "ohn": 1858,
      "erg": 1859,
      "Ġnet": 1860,
      "Ġplay": 1861,
      "ffici": 1862,
      "Ġplease": 1863,
      "ĠCon": 1864,
      "Ġunit": 1865,
      "Ġentire": 1866,
      "Ġupd": 1867,
      "Ġalways": 1868,
      "Ġcontinuing": 1869,
      "Now": 1870,
      "Ġgain": 1871,
      "Ġalready": 1872,
      "ogn": 1873,
      "Ġeng": 1874,
      "Ġcoll": 1875,
      "Ġhappen": 1876,
      "Ġsell": 1877,
      "ĠNow": 1878,
      "Lisa": 1879,
      "of": 1880,
      "oss": 1881,
      "ified": 1882,
      "Ġeveryone": 1883,
      "Ġdeploy": 1884,
      "Ġsystem": 1885,
      "Ġprice": 1886,
      "Ġins": 1887,
      "Ġlow": 1888,
      "ĠWind": 1889,
      "Ġvolume": 1890,
      "Ġwebsite": 1891,
      "Mark": 1892,
      "isse": 1893,
      "ĠSuisse": 1894,
      "Ġwanted": 1895,
      "Ġlevels": 1896,
      "Ġnod": 1897,
      "Ġimprovement": 1898,
      "Ġadditional": 1899,
      "Ġrequ": 1900,
      "ĠJust": 1901,
      "ield": 1902,
      "Ġtarg": 1903,
      "anks": 1904,
      "ĠIs": 1905,
      "ĠSem": 1906,
      "ĠGAAP": 1907,
      "action": 1908,
      "Ġ50": 1909,
      "16": 1910,
      "Ġyes": 1911,
      "Ġcombin": 1912,
      "ember": 1913,
      "Ġ12": 1914,
      "ĠLyn": 1915,
      "Ġbigg": 1916,
      "Ġarchitecture": 1917,
      "iconduct": 1918,
      "Ġcertainly": 1919,
      "Ġadvertising": 1920,
      "to": 1921,
      "ĠHu": 1922,
      "ellig": 1923,
      "Ġtyp": 1924,
      "Ġclient": 1925,
      "Ġshift": 1926,
      "Ġregard": 1927,
      "Ġspecifically": 1928,
      "Ġhear": 1929,
      "Ġupon": 1930,
      "PM": 1931,
      "ĠSe": 1932,
      "Ġeffici": 1933,
      "ĠThanks": 1934,
      "Brian": 1935,
      "bed": 1936,
      "ones": 1937,
      "Ġrest": 1938,
      "Ġfr": 1939,
      "ideo": 1940,
      "iod": 1941,
      "Ġcosts": 1942,
      "aps": 1943,
      "endent": 1944,
      "SD": 1945,
      "Ġmight": 1946,
      "ĠThey": 1947,
      "Ġclose": 1948,
      "ober": 1949,
      "Ġfree": 1950,
      "ĠIT": 1951,
      "Ġsuch": 1952,
      "Ġshipments": 1953,
      "ĠWindows": 1954,
      "As": 1955,
      "als": 1956,
      "Ġworkload": 1957,
      "ĠServices": 1958,
      "50": 1959,
      "Ġproject": 1960,
      "Ġability": 1961,
      "Ġspe": 1962,
      "Ġlonger": 1963,
      "Ġscale": 1964,
      "Ġpleased": 1965,
      "Ġshi": 1966,
      "ipment": 1967,
      "Ġbuilding": 1968,
      "ĠOffice": 1969,
      "line": 1970,
      "ath": 1971,
      "ĠSSD": 1972,
      "veral": 1973,
      "Ġcontribut": 1974,
      "Ġconsumer": 1975,
      "Ġwondering": 1976,
      "Okay": 1977,
      "gine": 1978,
      "Ġpositive": 1979,
      "Ġslight": 1980,
      "oing": 1981,
      "atya": 1982,
      "Ġfil": 1983,
      "ĠiPad": 1984,
      "top": 1985,
      "ency": 1986,
      "essional": 1987,
      "tra": 1988,
      "Ġdecline": 1989,
      "11": 1990,
      "EM": 1991,
      "Ġgraphics": 1992,
      "urther": 1993,
      "Ġperiod": 1994,
      "Ġrecogn": 1995,
      "ave": 1996,
      "less": 1997,
      "put": 1998,
      "Ġ(": 1999,
      "Ġless": 2000,
      "Ġparticularly": 2001,
      "ier": 2002,
      "enn": 2003,
      "ernstein": 2004,
      "duced": 2005,
      "ĠInvestor": 2006,
      "ams": 2007,
      "Ġexcited": 2008,
      "Ġdetail": 2009,
      "Ġcore": 2010,
      "ights": 2011,
      "errill": 2012,
      "ĠLynch": 2013,
      "point": 2014,
      "Ġseveral": 2015,
      "ĠMerrill": 2016,
      "ivid": 2017,
      "Ġlaunched": 2018,
      "uck": 2019,
      "Ġsingle": 2020,
      "ise": 2021,
      "abilities": 2022,
      "Ġinstall": 2023,
      "12": 2024,
      "inary": 2025,
      "Ġow": 2026,
      "urning": 2027,
      "Ġhardware": 2028,
      "qtr": 2029,
      "ties": 2030,
      "Ġqtr": 2031,
      "Ġinte": 2032,
      "ependent": 2033,
      "oldman": 2034,
      "ĠGPUs": 2035,
      "Ġperspective": 2036,
      "pec": 2037,
      "ĠSach": 2038,
      "une": 2039,
      "ĠSemiconduct": 2040,
      "ĠSachs": 2041,
      "Ġopt": 2042,
      "ĠAG": 2043,
      "Ġrelated": 2044,
      "ĠWhat": 2045,
      "cle": 2046,
      "Ġcal": 2047,
      "Ġge": 2048,
      "Ġnorm": 2049,
      "Ġbalance": 2050,
      "Ġcol": 2051,
      "Ġreach": 2052,
      "Ġevent": 2053,
      "Ġcapabilities": 2054,
      "Ġorders": 2055,
      "Ġintegr": 2056,
      "kes": 2057,
      "onom": 2058,
      "aly": 2059,
      "uts": 2060,
      "Ġadoption": 2061,
      "Ġpurch": 2062,
      "ĠTH": 2063,
      "ĠMe": 2064,
      "ĠRob": 2065,
      "ĠWith": 2066,
      "otent": 2067,
      "Ġinvesting": 2068,
      "Ġreturn": 2069,
      "Ġtools": 2070,
      "wh": 2071,
      "Ġpotent": 2072,
      "Ġmin": 2073,
      "ames": 2074,
      "ĠOEM": 2075,
      "Ġthinking": 2076,
      "aterially": 2077,
      "ĠPrime": 2078,
      "Ġown": 2079,
      "ĠMac": 2080,
      "Ġsmart": 2081,
      "Ġsmall": 2082,
      "ĠEPS": 2083,
      "Ġcolor": 2084,
      "OVID": 2085,
      "Ġtoward": 2086,
      "Ġqual": 2087,
      "ĠRel": 2088,
      "RS": 2089,
      "yb": 2090,
      "ĠBernstein": 2091,
      "Ġprep": 2092,
      "aw": 2093,
      "gether": 2094,
      "Ġtogether": 2095,
      "ibility": 2096,
      "Ġvari": 2097,
      "St": 2098,
      "Ġadv": 2099,
      "Ġleading": 2100,
      "Ġpay": 2101,
      "Ġlist": 2102,
      "ĠBE": 2103,
      "ĠAND": 2104,
      "EST": 2105,
      "let": 2106,
      "Ġ\"": 2107,
      "arl": 2108,
      "Ġ14": 2109,
      "Ġfeat": 2110,
      "Ġeach": 2111,
      "Ġ40": 2112,
      "Ġslightly": 2113,
      "Ġfurther": 2114,
      "ĠWenn": 2115,
      "ĠNe": 2116,
      "Ġresp": 2117,
      "Ġclos": 2118,
      "Ġweek": 2119,
      "Ġcycle": 2120,
      "ĠWennink": 2121,
      "eric": 2122,
      "arks": 2123,
      "core": 2124,
      "led": 2125,
      "Ġsense": 2126,
      "arcl": 2127,
      "Ġev": 2128,
      "ĠTO": 2129,
      "though": 2130,
      "Ġitems": 2131,
      "ĠOp": 2132,
      "arclays": 2133,
      "olve": 2134,
      "allen": 2135,
      "ĠHow": 2136,
      "ages": 2137,
      "Ġorder": 2138,
      "Am": 2139,
      "Ġweak": 2140,
      "ĠMa": 2141,
      "ĠEvent": 2142,
      "Ġcurious": 2143,
      "Ġroad": 2144,
      "ĠParticip": 2145,
      "CU": 2146,
      "ĠBrian": 2147,
      "Ġshort": 2148,
      "Ġthank": 2149,
      "Ġflat": 2150,
      "ĠRelations": 2151,
      "going": 2152,
      "Ġtoo": 2153,
      "Ġday": 2154,
      "ural": 2155,
      "lying": 2156,
      "ives": 2157,
      "ĠAmeric": 2158,
      "Ġstore": 2159,
      "venue": 2160,
      "Ġupgr": 2161,
      "istent": 2162,
      "Ġchallen": 2163,
      "ructions": 2164,
      "DE": 2165,
      "come": 2166,
      "ox": 2167,
      "wind": 2168,
      "ĠSw": 2169,
      "Ġedge": 2170,
      "ILI": 2171,
      "MENT": 2172,
      "MATION": 2173,
      "PON": 2174,
      "PRE": 2175,
      "ROVID": 2176,
      "SED": 2177,
      "VEST": 2178,
      "may": 2179,
      "ness": 2180,
      "ĠAll": 2181,
      "ĠARE": 2182,
      "Ġreduct": 2183,
      "ĠOF": 2184,
      "ĠOTHE": 2185,
      "Ġstarting": 2186,
      "ĠINFOR": 2187,
      "ĠINVEST": 2188,
      "ING": 2189,
      "ECIS": 2190,
      "curate": 2191,
      "ĠCONFERENCE": 2192,
      "ĠMADE": 2193,
      "ĠEVENT": 2194,
      "CURA": 2195,
      "ĠOTHER": 2196,
      "ĠINFORMATION": 2197,
      "ĠINVESTMENT": 2198,
      "ECISIONS": 2199,
      "Ġsit": 2200,
      "Ġinit": 2201,
      "abor": 2202,
      "ins": 2203,
      "Ġiss": 2204,
      "Ġexce": 2205,
      "Ġjoin": 2206,
      "Ġvideo": 2207,
      "Ġcent": 2208,
      "Ġwithout": 2209,
      "Thomson": 2210,
      "ories": 2211,
      "ese": 2212,
      "itig": 2213,
      "Ġtaking": 2214,
      "Ġremarks": 2215,
      "Ġindicates": 2216,
      "amer": 2217,
      "Ġgeneration": 2218,
      "bins": 2219,
      "ĠRobbins": 2220,
      "ĠSur": 2221,
      "Ġtrying": 2222,
      "cont": 2223,
      "Ġgeograph": 2224,
      "llar": 2225,
      "chie": 2226,
      "Ġongoing": 2227,
      "Ġmoving": 2228,
      "Ġdollar": 2229,
      "ront": 2230,
      "ences": 2231,
      "Ġregarding": 2232,
      "Ind": 2233,
      "ling": 2234,
      "sure": 2235,
      "yond": 2236,
      "anjay": 2237,
      "Ġlay": 2238,
      "endar": 2239,
      "Ġmeet": 2240,
      "Ġspace": 2241,
      "ĠSund": 2242,
      "Ġkeep": 2243,
      "Ġuncertainties": 2244,
      "15": 2245,
      "21": 2246,
      "Peter": 2247,
      "mental": 2248,
      "Ġansw": 2249,
      "Ġhelpful": 2250,
      "Ġtarget": 2251,
      "obert": 2252,
      "Independent": 2253,
      "ĠSundar": 2254,
      "dit": 2255,
      "reci": 2256,
      "ĠCPU": 2257,
      "Ġplus": 2258,
      "Ġunits": 2259,
      "Ġrev": 2260,
      "ety": 2261,
      "Ġtell": 2262,
      "Ġdevelopers": 2263,
      "25": 2264,
      "Ġachie": 2265,
      "enced": 2266,
      "accurate": 2267,
      "Ġoptim": 2268,
      "Ġcalendar": 2269,
      "Ġnormal": 2270,
      "BC": 2271,
      "lf": 2272,
      "Ġdef": 2273,
      "Ġtranscri": 2274,
      "ĠFinancial": 2275,
      "Tim": 2276,
      "Ġmain": 2277,
      "Ġglobal": 2278,
      "Ġever": 2279,
      "Ġconnect": 2280,
      "ĠIntern": 2281,
      "Ġexecution": 2282,
      "Ġworkloads": 2283,
      "Ġfair": 2284,
      "Ġguide": 2285,
      "Ġlog": 2286,
      "Ġapproach": 2287,
      "Ġsignificantly": 2288,
      "Ġupdate": 2289,
      "orrect": 2290,
      "Ġarea": 2291,
      "Ġsub": 2292,
      "Sure": 2293,
      "iss": 2294,
      "que": 2295,
      "aging": 2296,
      "Ġteams": 2297,
      "Ġsur": 2298,
      "Ġrequire": 2299,
      "Ġinstalled": 2300,
      "Ġhaving": 2301,
      "othy": 2302,
      "ĠEar": 2303,
      "Ġintellig": 2304,
      "ebook": 2305,
      "ĠInstructions": 2306,
      "14": 2307,
      "yz": 2308,
      "Ġmet": 2309,
      "che": 2310,
      "quarter": 2311,
      "Ġadj": 2312,
      "Ġhighl": 2313,
      "Ġcompetitive": 2314,
      "Ġsolid": 2315,
      "Ġfound": 2316,
      "ĠTim": 2317,
      "Ġcompared": 2318,
      "ĠJune": 2319,
      "Ġacquisition": 2320,
      "fact": 2321,
      "Ġrefer": 2322,
      "Ġbeyond": 2323,
      "iminary": 2324,
      "Ġdriver": 2325,
      "ĠRevenue": 2326,
      "Ġsubscription": 2327,
      "reliminary": 2328,
      "utsche": 2329,
      "rist": 2330,
      "ufact": 2331,
      "itz": 2332,
      "ilt": 2333,
      "Ġuser": 2334,
      "Ġvis": 2335,
      "eneration": 2336,
      "ĠASPs": 2337,
      "ĠOpEx": 2338,
      "ĠThese": 2339,
      "ĠJames": 2340,
      "Ġdevelopment": 2341,
      "Ġpartnership": 2342,
      "YC": 2343,
      "Ġmac": 2344,
      "Ġdivid": 2345,
      "Ġenab": 2346,
      "ĠEPYC": 2347,
      "Ġseasonal": 2348,
      "generation": 2349,
      "Ġcateg": 2350,
      "Ġorgan": 2351,
      "chnologies": 2352,
      "Ġretail": 2353,
      "Ġemp": 2354,
      "13": 2355,
      "cu": 2356,
      "hold": 2357,
      "ichael": 2358,
      "Ġlargest": 2359,
      "Ġdirect": 2360,
      "ĠInternet": 2361,
      "Ġdividend": 2362,
      "cos": 2363,
      "Ġcommun": 2364,
      "Ġmanufact": 2365,
      "Ġperson": 2366,
      "Ġdigital": 2367,
      "Ġes": 2368,
      "Ġstarted": 2369,
      "Ġanswer": 2370,
      "On": 2371,
      "ta": 2372,
      "ĠAss": 2373,
      "ette": 2374,
      "ĠOne": 2375,
      "Ġrates": 2376,
      "Ġprofitability": 2377,
      "Ġmeasures": 2378,
      "ex": 2379,
      "ership": 2380,
      "Ġexpense": 2381,
      "ĠJohn": 2382,
      "ĠUBS": 2383,
      "ktop": 2384,
      "Ġstep": 2385,
      "UBS": 2386,
      "ura": 2387,
      "Ġhop": 2388,
      "ĠRyz": 2389,
      "Ġtalking": 2390,
      "Ġconsistent": 2391,
      "Ġforecast": 2392,
      "ĠTo": 2393,
      "Ġtherefore": 2394,
      "ĠQu": 2395,
      "pecially": 2396,
      "Ġfar": 2397,
      "lcome": 2398,
      "ĠAct": 2399,
      "ĠPeter": 2400,
      "Ġshow": 2401,
      "Ġcomplet": 2402,
      "ĠWhile": 2403,
      "ince": 2404,
      "rop": 2405,
      "vercore": 2406,
      "Ġpublic": 2407,
      "Ġcenters": 2408,
      "rÃ": 2409,
      "Ġecos": 2410,
      "Ġ15": 2411,
      "Ġdocu": 2412,
      "Ġ60": 2413,
      "Ġautonom": 2414,
      "Ġespecially": 2415,
      "lish": 2416,
      "ĠInd": 2417,
      "Ġ11": 2418,
      "Ġtechnologies": 2419,
      "Ġbuilt": 2420,
      "Ġrecently": 2421,
      "ĠSemiconductor": 2422,
      "rÃ©": 2423,
      "MD": 2424,
      "Ġbook": 2425,
      "Ġdesktop": 2426,
      "ĠRyzen": 2427,
      "rÃ©dit": 2428,
      "Ġanaly": 2429,
      "Ġtra": 2430,
      "Ġposs": 2431,
      "Ġrespon": 2432,
      "Ġengine": 2433,
      "orporate": 2434,
      "Ġunderlying": 2435,
      "Ġmacro": 2436,
      "For": 2437,
      "ĠAt": 2438,
      "Ġel": 2439,
      "owen": 2440,
      "ĠMay": 2441,
      "Ġplace": 2442,
      "ĠMarch": 2443,
      "Ġaccount": 2444,
      "itigroup": 2445,
      "ĠEarnings": 2446,
      "att": 2447,
      "Ġfront": 2448,
      "ents": 2449,
      "Ġparticip": 2450,
      "conom": 2451,
      "Ġsw": 2452,
      "Ġconclud": 2453,
      "ĠKelly": 2454,
      "Ġshipping": 2455,
      "Ġlisten": 2456,
      "Ġecosystem": 2457,
      "ned": 2458,
      "ather": 2459,
      "Ġcame": 2460,
      "Ġeconom": 2461,
      "ider": 2462,
      "ĠRuth": 2463,
      "Ġnotebook": 2464,
      "Ġdrivers": 2465,
      "Ġanything": 2466,
      "Ġnode": 2467,
      "ky": 2468,
      "reet": 2469,
      "ĠPicha": 2470,
      "ĠGM": 2471,
      "Ġintern": 2472,
      "avid": 2473,
      "Ġdelivering": 2474,
      "Ġstrategic": 2475,
      "Ġautonomous": 2476,
      "ĠPichai": 2477,
      "24": 2478,
      "ext": 2479,
      "most": 2480,
      "ĠTAC": 2481,
      "irm": 2482,
      "Ġ25": 2483,
      "ĠFY": 2484,
      "istic": 2485,
      "ĠKramer": 2486,
      "inc": 2487,
      "ĠAr": 2488,
      "Ġant": 2489,
      "ĠEn": 2490,
      "ĠGoldman": 2491,
      "Ġproductivity": 2492,
      "Ġpres": 2493,
      "centric": 2494,
      "noon": 2495,
      "Ġcurrently": 2496,
      "Ġamount": 2497,
      "Ġafternoon": 2498,
      "Ġcollabor": 2499,
      "Ġest": 2500,
      "imer": 2501,
      "Ġcalls": 2502,
      "CI": 2503,
      "lement": 2504,
      "Ġform": 2505,
      "ĠOperating": 2506,
      "Ġrough": 2507,
      "Ġstronger": 2508,
      "Ġrepresent": 2509,
      "Ġstatement": 2510,
      "Ġfilings": 2511,
      "With": 2512,
      "Ġsc": 2513,
      "Ġdeb": 2514,
      "ilar": 2515,
      "Ġensure": 2516,
      "Ġclearly": 2517,
      "Ġdocuments": 2518,
      "Ġanticip": 2519,
      "rid": 2520,
      "ĠAMD": 2521,
      "Ġhand": 2522,
      "Ġinclude": 2523,
      "Ġaccelerate": 2524,
      "Ġdelivered": 2525,
      "Ġeffort": 2526,
      "Ġweeks": 2527,
      "ĠMeh": 2528,
      "Sund": 2529,
      "la": 2530,
      "mend": 2531,
      "ini": 2532,
      "rem": 2533,
      "Ġlater": 2534,
      "Ġ18": 2535,
      "Ġhelping": 2536,
      "Ġnumbers": 2537,
      "Ġsequential": 2538,
      "Sundar": 2539,
      "22": 2540,
      "Kelly": 2541,
      "It": 2542,
      "tics": 2543,
      "Ġaff": 2544,
      "Ġdays": 2545,
      "ict": 2546,
      "Ġtrack": 2547,
      "Ġmulti": 2548,
      "Ġmultip": 2549,
      "Ġhealthy": 2550,
      "expect": 2551,
      "40": 2552,
      "Great": 2553,
      "low": 2554,
      "Ġhist": 2555,
      "Ġhighly": 2556,
      "Ġincred": 2557,
      "Ġchain": 2558,
      "Ġthought": 2559,
      "Ġprepared": 2560,
      "Ġfind": 2561,
      "Ġeas": 2562,
      "Ġ13": 2563,
      "Ġneeds": 2564,
      "Ġaccelerated": 2565,
      "Ġquickly": 2566,
      "Ġframe": 2567,
      "Ġchalleng": 2568,
      "Ġbre": 2569,
      "Ġabs": 2570,
      "ively": 2571,
      "Ġused": 2572,
      "ĠWhen": 2573,
      "ĠCOVID": 2574,
      "ĠConference": 2575,
      "ĠZ": 2576,
      "Ġstated": 2577,
      "olette": 2578,
      "ferred": 2579,
      "Ġdeclined": 2580,
      "Ġbringing": 2581,
      "Ġhighlight": 2582,
      "ra": 2583,
      "Ġdynamics": 2584,
      "Ġuni": 2585,
      "Ġaddress": 2586,
      "aged": 2587,
      "ĠComm": 2588,
      "Ġleadership": 2589,
      "Ġnetworking": 2590,
      "Ġtowards": 2591,
      "Ġroughly": 2592,
      "ĠBarclays": 2593,
      "Ġatt": 2594,
      "Ġcompar": 2595,
      "Ġalmost": 2596,
      "Ġsharehold": 2597,
      "Ġincludes": 2598,
      "Ġcountries": 2599,
      "side": 2600,
      "Ġdist": 2601,
      "Ġexpans": 2602,
      "umm": 2603,
      "ĠFX": 2604,
      "Ġsuper": 2605,
      "ĠComput": 2606,
      "Ġpotential": 2607,
      "Ġhome": 2608,
      "ĠOther": 2609,
      "Ġdigits": 2610,
      "Ġheadwind": 2611,
      "Ġbeginning": 2612,
      "CG": 2613,
      "OS": 2614,
      "Ġneg": 2615,
      "Ġcompon": 2616,
      "Ġagree": 2617,
      "Ġdebt": 2618,
      "Ġmultiple": 2619,
      "Ġthree": 2620,
      "orage": 2621,
      "iting": 2622,
      "itors": 2623,
      "performance": 2624,
      "acing": 2625,
      "Ġ100": 2626,
      "uca": 2627,
      "GS": 2628,
      "ĠMichael": 2629,
      "ĠChuck": 2630,
      "ĠStreet": 2631,
      "Ġgeneral": 2632,
      "Ġmeaning": 2633,
      "Ġmodels": 2634,
      "Ġtiming": 2635,
      "Ġoperations": 2636,
      "Ġjoining": 2637,
      "arles": 2638,
      "Ġadvanced": 2639,
      "Ġvir": 2640,
      "Ġcapability": 2641,
      "Ġrepurch": 2642,
      "Ġgreater": 2643,
      "Ġeverything": 2644,
      "Ġfeatures": 2645,
      "itzer": 2646,
      "Ġmanufacturing": 2647,
      "ĠSh": 2648,
      "otive": 2649,
      "argo": 2650,
      "Ġreasonable": 2651,
      "duce": 2652,
      "Ġtimes": 2653,
      "ĠISI": 2654,
      "ME": 2655,
      "ls": 2656,
      "Ġinference": 2657,
      "Ġmind": 2658,
      "Ġquarterly": 2659,
      "opher": 2660,
      "ully": 2661,
      "ristopher": 2662,
      "oT": 2663,
      "aron": 2664,
      "ĠDynamics": 2665,
      "ĠWell": 2666,
      "Ġsimilar": 2667,
      "Ġadvant": 2668,
      "Ġanalytics": 2669,
      "aid": 2670,
      "rn": 2671,
      "pped": 2672,
      "ĠPitzer": 2673,
      "inked": 2674,
      "Ġthroughout": 2675,
      "Ġcombination": 2676,
      "Ġbiggest": 2677,
      "ĠHuang": 2678,
      "Ġemploy": 2679,
      "ĠIndia": 2680,
      "Well": 2681,
      "custom": 2682,
      "sun": 2683,
      "ĠIoT": 2684,
      "olf": 2685,
      "ĠFargo": 2686,
      "Ġaccess": 2687,
      "Ġprocessor": 2688,
      "Ġprofessional": 2689,
      "Ġswitch": 2690,
      "ru": 2691,
      "Ġwelcome": 2692,
      "Ġloc": 2693,
      "izing": 2694,
      "Ġtransact": 2695,
      "Ġimpacted": 2696,
      "ĠAlthough": 2697,
      "Ġcreate": 2698,
      "PMorgan": 2699,
      "ford": 2700,
      "oore": 2701,
      "umber": 2702,
      "Ġthanks": 2703,
      "Ġreminder": 2704,
      "Ġsmartph": 2705,
      "ĠSwan": 2706,
      "inkedIn": 2707,
      "ian": 2708,
      "pri": 2709,
      "Ġyet": 2710,
      "ĠTV": 2711,
      "Ġabove": 2712,
      "hann": 2713,
      "Ġautomotive": 2714,
      "Ġadjust": 2715,
      "33": 2716,
      "34": 2717,
      "WS": 2718,
      "mber": 2719,
      "Ġsince": 2720,
      "Ġfab": 2721,
      "ction": 2722,
      "ĠMoore": 2723,
      "ĠHe": 2724,
      "Ġmeans": 2725,
      "ĠUn": 2726,
      "Ġaccelerating": 2727,
      "lig": 2728,
      "atter": 2729,
      "ĠAWS": 2730,
      "Ġsemi": 2731,
      "Ġrespect": 2732,
      "Ġinvolve": 2733,
      "Ġleverage": 2734,
      "ĠDeutsche": 2735,
      "Ġexperienced": 2736,
      "Ġbenefits": 2737,
      "Ġfun": 2738,
      "row": 2739,
      "Ġgame": 2740,
      "Ġalong": 2741,
      "Ġdifferenti": 2742,
      "ĠInvestment": 2743,
      "Ġfaster": 2744,
      "Ġdefin": 2745,
      "Let": 2746,
      "ĠAD": 2747,
      "Ġseems": 2748,
      "Ġconvers": 2749,
      "Ġstorage": 2750,
      "ĠYover": 2751,
      "ĠKe": 2752,
      "Ġapplication": 2753,
      "Ġsolution": 2754,
      "Ġlarger": 2755,
      "Ġengagement": 2756,
      "Ġpossible": 2757,
      "ĠYoverY": 2758,
      "26": 2759,
      "Robert": 2760,
      "anford": 2761,
      "ands": 2762,
      "Ġapps": 2763,
      "Ġcommit": 2764,
      "AR": 2765,
      "part": 2766,
      "vinder": 2767,
      "Ġdr": 2768,
      "ĠLinkedIn": 2769,
      "Ġbecome": 2770,
      "ĠAmy": 2771,
      "Ġbasically": 2772,
      "Ġslow": 2773,
      "Ġintroduced": 2774,
      "Ġexpansion": 2775,
      "27": 2776,
      "orat": 2777,
      "Ġbeh": 2778,
      "Ġacceleration": 2779,
      "Ġemerg": 2780,
      "Ġvariety": 2781,
      "Ġemploye": 2782,
      "35": 2783,
      "fic": 2784,
      "Ġpace": 2785,
      "ĠCook": 2786,
      "ĠPorat": 2787,
      "Ġ16": 2788,
      "ĠHard": 2789,
      "Ġplans": 2790,
      "Ġleast": 2791,
      "ĠChase": 2792,
      "Ġess": 2793,
      "Ġsite": 2794,
      "Ġ17": 2795,
      "Ġstruct": 2796,
      "Ġsomewh": 2797,
      "gang": 2798,
      "Ġannual": 2799,
      "Charles": 2800,
      "olfgang": 2801,
      "100": 2802,
      "hi": 2803,
      "ĠHood": 2804,
      "Ġclar": 2805,
      "Ġramping": 2806,
      "Ġconfirm": 2807,
      "Ġreduction": 2808,
      "gon": 2809,
      "Ġfund": 2810,
      "Ġpartner": 2811,
      "Ġimprovements": 2812,
      "Ġofferings": 2813,
      "Ġstandpoint": 2814,
      "Ġprojections": 2815,
      "ĠNew": 2816,
      "ĠQuarter": 2817,
      "23": 2818,
      "Ġcare": 2819,
      "Ġonline": 2820,
      "ivek": 2821,
      "opy": 2822,
      "ybrid": 2823,
      "Ġreview": 2824,
      "Timothy": 2825,
      "Ġaverage": 2826,
      "ounder": 2827,
      "ili": 2828,
      "Ġ64": 2829,
      "Ġcompute": 2830,
      "Ġoblig": 2831,
      "Ġpublish": 2832,
      "Ġlogic": 2833,
      "Ġabsolut": 2834,
      "Founder": 2835,
      "asgon": 2836,
      "ĠMuse": 2837,
      "ĠRasgon": 2838,
      "ĠEvercore": 2839,
      "Ġtrain": 2840,
      "Ġtraction": 2841,
      "Ġsecure": 2842,
      "Ġlooks": 2843,
      "Ġsaf": 2844,
      "Ġexpanded": 2845,
      "Ġincreasingly": 2846,
      "Ġcommentary": 2847,
      "Ġextend": 2848,
      "ĠAmerica": 2849,
      "Ġaffect": 2850,
      "28": 2851,
      "Ġholid": 2852,
      "ĠSatya": 2853,
      "Ġdeal": 2854,
      "ARY": 2855,
      "MS": 2856,
      "ded": 2857,
      "sky": 2858,
      "rotra": 2859,
      "ĠOls": 2860,
      "Ġshe": 2861,
      "Ġreser": 2862,
      "Ġpred": 2863,
      "avsky": 2864,
      "Ġprocessors": 2865,
      "Ġrisk": 2866,
      "ĠMehrotra": 2867,
      "ĠOlsavsky": 2868,
      "Ġhybrid": 2869,
      "ĠCowen": 2870,
      "itely": 2871,
      "Ġmanagement": 2872,
      "Amy": 2873,
      "ĠActual": 2874,
      "Ġnegative": 2875,
      "Ġ0": 2876,
      "ĠPa": 2877,
      "Ġhighest": 2878,
      "Ġconsider": 2879,
      "Ġreflecting": 2880,
      "Ġadvantage": 2881,
      "32": 2882,
      "Ġyield": 2883,
      "Ġnat": 2884,
      "Ġrob": 2885,
      "Ġrealized": 2886,
      "obile": 2887,
      "Ġmanage": 2888,
      "Ġobligation": 2889,
      "29": 2890,
      "ever": 2891,
      "face": 2892,
      "ring": 2893,
      "Ġca": 2894,
      "urance": 2895,
      "ĠSI": 2896,
      "ĠNO": 2897,
      "empl": 2898,
      "ella": 2899,
      "Ġimproved": 2900,
      "Ġmonet": 2901,
      "Ġequipment": 2902,
      "ĠSSDs": 2903,
      "Ġessent": 2904,
      "itical": 2905,
      "ĠCrÃ©dit": 2906,
      "ustain": 2907,
      "ĠOver": 2908,
      "ification": 2909,
      "Ġproviders": 2910,
      "Ġremains": 2911,
      "Ġefficiency": 2912,
      "Ġvirt": 2913,
      "31": 2914,
      "36": 2915,
      "De": 2916,
      "Ruth": 2917,
      "TX": 2918,
      "XT": 2919,
      "Ġtend": 2920,
      "Ġways": 2921,
      "Ġsustain": 2922,
      "Ġmaterially": 2923,
      "ĠON": 2924,
      "ĠForm": 2925,
      "Ġactive": 2926,
      "Ġroll": 2927,
      "ĠEquipment": 2928,
      "Ġadvertisers": 2929,
      "Stacy": 2930,
      "Ġdefinitely": 2931,
      "Sanjay": 2932,
      "fA": 2933,
      "ĠData": 2934,
      "Ġstock": 2935,
      "ĠGener": 2936,
      "Ġoutput": 2937,
      "Ġmarketing": 2938,
      "Ġappreci": 2939,
      "Ġindicate": 2940,
      "ĠBofA": 2941,
      "ually": 2942,
      "ĠAaron": 2943,
      "ĠSearch": 2944,
      "adella": 2945,
      "ĠGe": 2946,
      "ĠNadella": 2947,
      "terprise": 2948,
      "ĠJPMorgan": 2949,
      "identified": 2950,
      "avor": 2951,
      "Ġactual": 2952,
      "Ġresponse": 2953,
      "38": 2954,
      "Con": 2955,
      "haps": 2956,
      "oice": 2957,
      "ides": 2958,
      "Ġstack": 2959,
      "Ġaccur": 2960,
      "ief": 2961,
      "ĠChief": 2962,
      "ensen": 2963,
      "Ġexperiences": 2964,
      "Ġnetworks": 2965,
      "ypers": 2966,
      "Ġexpanding": 2967,
      "mium": 2968,
      "ream": 2969,
      "lem": 2970,
      "ĠLisa": 2971,
      "Ġfinal": 2972,
      "Ġproviding": 2973,
      "Ġlargely": 2974,
      "ISS": 2975,
      "ĠOfficer": 2976,
      "Ġshareholders": 2977,
      "Ġemerging": 2978,
      "for": 2979,
      "ner": 2980,
      "roid": 2981,
      "Ġlic": 2982,
      "ĠCross": 2983,
      "ĠDCG": 2984,
      "ĠPLC": 2985,
      "Ġcalled": 2986,
      "Ġadded": 2987,
      "ody": 2988,
      "Ġwafer": 2989,
      "Ġfairly": 2990,
      "party": 2991,
      "EW": 2992,
      "ERS": 2993,
      "SENT": 2994,
      "pro": 2995,
      "Ġcr": 2996,
      "Ġ24": 2997,
      "VIEW": 2998,
      "Ġgames": 2999,
      "related": 3000,
      "Ġrecognition": 3001,
      "arlan": 3002,
      "PRESENT": 3003,
      "Ġbreak": 3004,
      "emplated": 3005,
      "PRESENTATION": 3006,
      "45": 3007,
      "IT": 3008,
      "Turning": 3009,
      "ake": 3010,
      "Ġread": 3011,
      "Ġlat": 3012,
      "Ġperhaps": 3013,
      "Ġfully": 3014,
      "Ġdoub": 3015,
      "Ġbigger": 3016,
      "Ġintelligence": 3017,
      "Ġcollaboration": 3018,
      "Ġestim": 3019,
      "rnie": 3020,
      "Satya": 3021,
      "Ġve": 3022,
      "Ġpaid": 3023,
      "Ġdis": 3024,
      "Ġrece": 3025,
      "ĠCitigroup": 3026,
      "ĠRBC": 3027,
      "ĠAndroid": 3028,
      "Ġdeferred": 3029,
      "Ġtakes": 3030,
      "Ġart": 3031,
      "Ġdiscussed": 3032,
      "Ġmajority": 3033,
      "Ġpresent": 3034,
      "MA": 3035,
      "dri": 3036,
      "ĠWill": 3037,
      "Ġtransformation": 3038,
      "ĠStr": 3039,
      "Ġannounce": 3040,
      "Ġholiday": 3041,
      "Ġhypers": 3042,
      "Ġenhan": 3043,
      "Ġenable": 3044,
      "Ġbuy": 3045,
      "aterial": 3046,
      "Ġrunning": 3047,
      "Ġpurchase": 3048,
      "ĠHardware": 3049,
      "Ġreserves": 3050,
      "60": 3051,
      "SI": 3052,
      "box": 3053,
      "right": 3054,
      "way": 3055,
      "erved": 3056,
      "state": 3057,
      "idence": 3058,
      "Ġexist": 3059,
      "Ġdevice": 3060,
      "otal": 3061,
      "Ġshares": 3062,
      "Ġincluded": 3063,
      "Ġagainst": 3064,
      "Ġrelatively": 3065,
      "Ġwebcast": 3066,
      "Ġstores": 3067,
      "Ġupgrade": 3068,
      "TA": 3069,
      "can": 3070,
      "wide": 3071,
      "Ġtest": 3072,
      "Ġsumm": 3073,
      "entlem": 3074,
      "Ġgentlem": 3075,
      "Ġprove": 3076,
      "Ġexclud": 3077,
      "ĠER": 3078,
      "Ġpartially": 3079,
      "Ġprevious": 3080,
      "Ġtransform": 3081,
      "efin": 3082,
      "That": 3083,
      "Ġprovider": 3084,
      "Ġgentlemen": 3085,
      "hic": 3086,
      "rain": 3087,
      "wor": 3088,
      "Ġ/": 3089,
      "Ġflex": 3090,
      "Ġquant": 3091,
      "aym": 3092,
      "Ġprot": 3093,
      "Ġextra": 3094,
      "ector": 3095,
      "Ġrepl": 3096,
      "Ġcomputer": 3097,
      "Ġassurance": 3098,
      "Ġprovided": 3099,
      "ibly": 3100,
      "Ġdistribut": 3101,
      "AM": 3102,
      "Ġfavor": 3103,
      "omura": 3104,
      "Ġnice": 3105,
      "ĠMr": 3106,
      "Ġexact": 3107,
      "adies": 3108,
      "astic": 3109,
      "Ġgoes": 3110,
      "Ġchanged": 3111,
      "Ġpositioned": 3112,
      "Ġtri": 3113,
      "ĠAC": 3114,
      "Ġgives": 3115,
      "thers": 3116,
      "ĠMobile": 3117,
      "ĠEu": 3118,
      "ilut": 3119,
      "Ġjob": 3120,
      "Ġpremium": 3121,
      "ĠStore": 3122,
      "itted": 3123,
      "oshi": 3124,
      "Ġsheet": 3125,
      "Qu": 3126,
      "body": 3127,
      "Ġvert": 3128,
      "information": 3129,
      "Ġmil": 3130,
      "Ġdro": 3131,
      "ĠSuch": 3132,
      "ĠDO": 3133,
      "ĠReserved": 3134,
      "Ġgoal": 3135,
      "Ġrecon": 3136,
      "curi": 3137,
      "Ġwhole": 3138,
      "Ġadopt": 3139,
      "Ġgeographic": 3140,
      "ĠArcuri": 3141,
      "Ġemployees": 3142,
      "CON": 3143,
      "Corporate": 3144,
      "Disc": 3145,
      "EL": 3146,
      "ERI": 3147,
      "Event": 3148,
      "Hsun": 3149,
      "SU": 3150,
      "fill": 3151,
      "iants": 3152,
      "uation": 3153,
      "atic": 3154,
      "ither": 3155,
      "ĠOM": 3156,
      "ĠBA": 3157,
      "Ġusage": 3158,
      "Ġ34": 3159,
      "Ġnotify": 3160,
      "istant": 3161,
      "This": 3162,
      "ĠiOS": 3163,
      "ĠITS": 3164,
      "ĠParticipants": 3165,
      "ĠParticipiants": 3166,
      "Ġmetric": 3167,
      "ĠGMT": 3168,
      "ĠComputing": 3169,
      "ĠStreetEvent": 3170,
      "opyright": 3171,
      "Conference": 3172,
      "Ġaccurately": 3173,
      "ERIAL": 3174,
      "ĠStreetEvents": 3175,
      "37": 3176,
      "AY": 3177,
      "BILI": 3178,
      "Copyright": 3179,
      "DECISIONS": 3180,
      "EB": 3181,
      "EXT": 3182,
      "FFOR": 3183,
      "HI": 3184,
      "KING": 3185,
      "NGS": 3186,
      "OF": 3187,
      "POR": 3188,
      "PROVID": 3189,
      "ROR": 3190,
      "TS": 3191,
      "TY": 3192,
      "TAN": 3193,
      "TING": 3194,
      "UAL": 3195,
      "ey": 3196,
      "materially": 3197,
      "number": 3198,
      "such": 3199,
      "ora": 3200,
      "Ġinaccurate": 3201,
      "ĠSUBS": 3202,
      "ĠTEXT": 3203,
      "ĠMAT": 3204,
      "ĠDECISIONS": 3205,
      "ĠRES": 3206,
      "ĠRights": 3207,
      "ĠRTX": 3208,
      "ĠWAY": 3209,
      "ĠWEB": 3210,
      "ĠWHI": 3211,
      "ĠEFFOR": 3212,
      "ĠPROVID": 3213,
      "Ġcontr": 3214,
      "ĠFOR": 3215,
      "ĠFILI": 3216,
      "FORE": 3217,
      "ĠUPON": 3218,
      "ĠStacy": 3219,
      "VISED": 3220,
      "ĠASSU": 3221,
      "ĠTHERE": 3222,
      "ĠINAC": 3223,
      "new": 3224,
      "INED": 3225,
      "ĠTRANSCRIPTS": 3226,
      "ĠTRANSCRIPTION": 3227,
      "ĠTranscripts": 3228,
      "Ġhappy": 3229,
      "ĠREVIEW": 3230,
      "ĠREPRESENTATION": 3231,
      "ĠREPOR": 3232,
      "ĠUSERS": 3233,
      "ĠCONTA": 3234,
      "ĠMAY": 3235,
      "ĠCALLS": 3236,
      "ĠTHIS": 3237,
      "ĠBEFORE": 3238,
      "PONSI": 3239,
      "CURATE": 3240,
      "CURACI": 3241,
      "contemplated": 3242,
      "Ġbookings": 3243,
      "incorrect": 3244,
      "laimer": 3245,
      "expectations": 3246,
      "ĠADVISED": 3247,
      "ĠSITE": 3248,
      "ISSIONS": 3249,
      "MAKING": 3250,
      "statements": 3251,
      "ĠERROR": 3252,
      "ĠACCURATE": 3253,
      "ĠDOES": 3254,
      "CONFERENCE": 3255,
      "Disclaimer": 3256,
      "ELF": 3257,
      "ĠOMISSIONS": 3258,
      "ĠBASED": 3259,
      "ĠITSELF": 3260,
      "BILITY": 3261,
      "PROVIDE": 3262,
      "TANCE": 3263,
      "ĠSUBSTANCE": 3264,
      "ĠTEXTUAL": 3265,
      "ĠMATERIAL": 3266,
      "ĠRESPONSI": 3267,
      "ĠWHILE": 3268,
      "ĠEFFORTS": 3269,
      "ĠPROVIDED": 3270,
      "ĠFILINGS": 3271,
      "ĠASSUME": 3272,
      "ĠINACCURACI": 3273,
      "ĠREPORTING": 3274,
      "ĠCONTAINED": 3275,
      "ĠERRORS": 3276,
      "ĠRESPONSIBILITY": 3277,
      "ĠINACCURACIES": 3278,
      "hen": 3279,
      "mar": 3280,
      "oard": 3281,
      "ats": 3282,
      "Ġsize": 3283,
      "Ġmaterial": 3284,
      "ĠTAM": 3285,
      "add": 3286,
      "ĠThomson": 3287,
      "Ġmakes": 3288,
      "Ġexecute": 3289,
      "Ġdiscussion": 3290,
      "ĠXbox": 3291,
      "bedded": 3292,
      "Ġtranscribed": 3293,
      "ĠGeneral": 3294,
      "OMS": 3295,
      "UTE": 3296,
      "ee": 3297,
      "Ġver": 3298,
      "Ġcase": 3299,
      "Ġred": 3300,
      "Ġlive": 3301,
      "Ġeither": 3302,
      "ĠDay": 3303,
      "ĠPlease": 3304,
      "Ġcontext": 3305,
      "Ġbecom": 3306,
      "ager": 3307,
      "Ġfollowing": 3308,
      "ĠREUTE": 3309,
      "Ġdetails": 3310,
      "ĠTHOMS": 3311,
      "Ġvisibility": 3312,
      "Ġefforts": 3313,
      "Ġvertical": 3314,
      "Ġdrove": 3315,
      "ĠREUTERS": 3316,
      "ĠTHOMSON": 3317,
      "rep": 3318,
      "Ġwin": 3319,
      "Ġfac": 3320,
      "Ġmap": 3321,
      "Ġstay": 3322,
      "ĠPlay": 3323,
      "ĠBob": 3324,
      "feries": 3325,
      "Ġenc": 3326,
      "Ġservers": 3327,
      "efferies": 3328,
      "Ġrelations": 3329,
      "Ġdiscon": 3330,
      "ĠSecond": 3331,
      "Ġweakness": 3332,
      "ĠEnterprise": 3333,
      "ĠWells": 3334,
      "ces": 3335,
      "fully": 3336,
      "zan": 3337,
      "ĠMo": 3338,
      "Ġ21": 3339,
      "Ġcontro": 3340,
      "Ġparts": 3341,
      "Ġadding": 3342,
      "Ġ45": 3343,
      "Ġgenerated": 3344,
      "ĠKrzan": 3345,
      "Ġgains": 3346,
      "Ġissues": 3347,
      "Ġdisconnect": 3348,
      "ĠKrzanich": 3349,
      "Your": 3350,
      "itor": 3351,
      "Ġfam": 3352,
      "Ġpat": 3353,
      "ĠCenter": 3354,
      "Ġbelow": 3355,
      "Ġself": 3356,
      "imon": 3357,
      "ulfill": 3358,
      "ĠNV": 3359,
      "Ġpreviously": 3360,
      "ensive": 3361,
      "criptions": 3362,
      "Ġimproving": 3363,
      "Ġincreases": 3364,
      "Ġconfident": 3365,
      "Ġreported": 3366,
      "Ġhappening": 3367,
      "Ġupgrad": 3368,
      "Ġcontract": 3369,
      "val": 3370,
      "ĠAry": 3371,
      "Ġloss": 3372,
      "Ġhaven": 3373,
      "Ġ22": 3374,
      "Ġ26": 3375,
      "aces": 3376,
      "ĠLet": 3377,
      "Ġdiffic": 3378,
      "Ġended": 3379,
      "Ġportion": 3380,
      "Ġpriv": 3381,
      "Ġsubscriptions": 3382,
      "Ġnearly": 3383,
      "ĠSept": 3384,
      "Ġdollars": 3385,
      "ission": 3386,
      "Ġseasonality": 3387,
      "Ġcategories": 3388,
      "Question": 3389,
      "ĠArya": 3390,
      "ening": 3391,
      "oug": 3392,
      "Ġmed": 3393,
      "Ġgr": 3394,
      "through": 3395,
      "ĠMora": 3396,
      "Ġpop": 3397,
      "Ġreplay": 3398,
      "Ġavailability": 3399,
      "Ġplanning": 3400,
      "encies": 3401,
      "Ġpublished": 3402,
      "Ġtraining": 3403,
      "Ġreconc": 3404,
      "bat": 3405,
      "down": 3406,
      "Ġphone": 3407,
      "usic": 3408,
      "ĠTre": 3409,
      "self": 3410,
      "ensity": 3411,
      "Ġoffering": 3412,
      "Ġsites": 3413,
      "Ġappreciate": 3414,
      "prof": 3415,
      "39": 3416,
      "Defin": 3417,
      "Ed": 3418,
      "Me": 3419,
      "To": 3420,
      "aking": 3421,
      "ms": 3422,
      "oe": 3423,
      "Ġwins": 3424,
      "ĠPl": 3425,
      "ott": 3426,
      "Ġrout": 3427,
      "Ġremind": 3428,
      "Ġcommitted": 3429,
      "Ġdecre": 3430,
      "Ġminus": 3431,
      "..": 3432,
      "ken": 3433,
      "ration": 3434,
      "ani": 3435,
      "Ġfulfill": 3436,
      "Ġdilut": 3437,
      "change": 3438,
      "acks": 3439,
      "Ġ200": 3440,
      "Ġtry": 3441,
      "Ġincremental": 3442,
      "Ġtranscription": 3443,
      "Ġ90": 3444,
      "Ġvarious": 3445,
      "ĠSurface": 3446,
      "rope": 3447,
      "Ġlistened": 3448,
      "Ġvehic": 3449,
      "ĠEurope": 3450,
      "represent": 3451,
      "Mic": 3452,
      "Present": 3453,
      "aS": 3454,
      "Ġothers": 3455,
      "itut": 3456,
      "ĠAR": 3457,
      "Ġasso": 3458,
      "log": 3459,
      "ĠAnsw": 3460,
      "Ġtrade": 3461,
      "Ġpost": 3462,
      "Ġcompetition": 3463,
      "ĠManager": 3464,
      "Ġedited": 3465,
      "Ġnodes": 3466,
      "Ġinitial": 3467,
      "Ġunique": 3468,
      "Presentation": 3469,
      "Ġassoci": 3470,
      "CP": 3471,
      "MIN": 3472,
      "Preliminary": 3473,
      "Transcript": 3474,
      "ug": 3475,
      "editors": 3476,
      "ĠDo": 3477,
      "ĠPreliminary": 3478,
      "Ġ19": 3479,
      "Ġads": 3480,
      "LIMIN": 3481,
      "EDIT": 3482,
      "Ġtremend": 3483,
      "Ġconfidence": 3484,
      "PRELIMIN": 3485,
      "Ġiniti": 3486,
      "content": 3487,
      "Ġlayers": 3488,
      "Ġtranscriber": 3489,
      "Ġmeaningful": 3490,
      "Ġvirtual": 3491,
      "Ġverbat": 3492,
      "Questions": 3493,
      "professional": 3494,
      "Definitions": 3495,
      "Edited": 3496,
      "represents": 3497,
      "ĠAnswers": 3498,
      "EDITED": 3499,
      "Ġtremendous": 3500,
      "PRELIMINARY": 3501,
      "Ġverbatim": 3502,
      "Just": 3503,
      "bviously": 3504,
      "ators": 3505,
      "orry": 3506,
      "Ġpull": 3507,
      "urcan": 3508,
      "ĠIP": 3509,
      "ĠSanford": 3510,
      "ĠDurcan": 3511,
      "Ġ28": 3512,
      "ĠHar": 3513,
      "ĠYes": 3514,
      "ĠYour": 3515,
      "Ġreflects": 3516,
      "Ġsuccessful": 3517,
      "Ġcars": 3518,
      "ĠAssistant": 3519,
      "Ġchallenges": 3520,
      "Ġrelationship": 3521,
      "42": 3522,
      "MO": 3523,
      "ye": 3524,
      "Ġ=": 3525,
      "ĠCur": 3526,
      "ĠMadd": 3527,
      "ables": 3528,
      "Ġexpecting": 3529,
      "Ġtechn": 3530,
      "Ġconsolid": 3531,
      "Ġindustries": 3532,
      "layne": 3533,
      "Ġshipment": 3534,
      "encing": 3535,
      "Ġclosing": 3536,
      "Ġmonetization": 3537,
      "Ġexisting": 3538,
      "Ġassociated": 3539,
      "ĠMaddock": 3540,
      "uity": 3541,
      "ĠSp": 3542,
      "Ġlikely": 3543,
      "Ġcreated": 3544,
      "Ġdoesn": 3545,
      "Ġunderstanding": 3546,
      "Ġexceed": 3547,
      "Ġachieve": 3548,
      "mon": 3549,
      "inally": 3550,
      "Ġwatch": 3551,
      "ator": 3552,
      "ĠSector": 3553,
      "lev": 3554,
      "ĠRoss": 3555,
      "ote": 3556,
      "ĠBets": 3557,
      "ĠNetwor": 3558,
      "resh": 3559,
      "Ġplanned": 3560,
      "Ġwonder": 3561,
      "Ġpartnerships": 3562,
      "Ġcomponent": 3563,
      "Ġlatest": 3564,
      ".'": 3565,
      "41": 3566,
      "John": 3567,
      "eg": 3568,
      "Ġturning": 3569,
      "Ġcor": 3570,
      "Ġlines": 3571,
      "ĠSm": 3572,
      "Ġsect": 3573,
      "sel": 3574,
      "Ġconstrain": 3575,
      "Ġassume": 3576,
      "ergy": 3577,
      "Ġcombined": 3578,
      "Ġsituation": 3579,
      "Ġpredict": 3580,
      "Ġexactly": 3581,
      "LP": 3582,
      "Morgan": 3583,
      "iam": 3584,
      "pite": 3585,
      "ĠAc": 3586,
      "ĠMember": 3587,
      "Ġcontain": 3588,
      "ĠHigh": 3589,
      "sole": 3590,
      "Ġunt": 3591,
      "Ġdemon": 3592,
      "ĠSte": 3593,
      "redit": 3594,
      "Ġeffective": 3595,
      "But": 3596,
      "Ġgave": 3597,
      "ĠPay": 3598,
      "apan": 3599,
      "ump": 3600,
      "ĠLuca": 3601,
      "Ġ31": 3602,
      "ĠJapan": 3603,
      "Ġrecorded": 3604,
      "Ġmeasure": 3605,
      "Ġincredibly": 3606,
      "Ġabsolutely": 3607,
      "Ġprotect": 3608,
      "back": 3609,
      "Ġpie": 3610,
      "Ġlif": 3611,
      "vern": 3612,
      "cember": 3613,
      "Ġconsole": 3614,
      "Ġgovern": 3615,
      "roud": 3616,
      "Ġreasons": 3617,
      "Ġtype": 3618,
      "Ġreached": 3619,
      "Ġdifficult": 3620,
      "46": 3621,
      "David": 3622,
      "Ġcases": 3623,
      "ĠAre": 3624,
      "asur": 3625,
      "Ġproble": 3626,
      "ource": 3627,
      "Ġbuyb": 3628,
      "Ġactivity": 3629,
      "ived": 3630,
      "Ġopening": 3631,
      "Ġselling": 3632,
      "Ġconclude": 3633,
      "Ġscen": 3634,
      "Ġsomewhat": 3635,
      "Ġfunda": 3636,
      "Ġhyperscale": 3637,
      "Ġmetrics": 3638,
      "Ġuntil": 3639,
      "VP": 3640,
      "ral": 3641,
      "ret": 3642,
      "Ġfall": 3643,
      "Ġproud": 3644,
      "Ġdate": 3645,
      "ĠColette": 3646,
      "ĠSVP": 3647,
      "the": 3648,
      "ĠObviously": 3649,
      "Ġimm": 3650,
      "ĠJan": 3651,
      "ĠDecember": 3652,
      "Ġbrand": 3653,
      "place": 3654,
      "Ġprogramm": 3655,
      "Ġexciting": 3656,
      "Ġelse": 3657,
      "Ġswitching": 3658,
      "Ġcommitment": 3659,
      "ĠTreasur": 3660,
      "Ġdemonst": 3661,
      "more": 3662,
      "uge": 3663,
      "wise": 3664,
      "Ġcorrect": 3665,
      "Ġgig": 3666,
      "Ġlight": 3667,
      "ĠWatch": 3668,
      "ĠBusiness": 3669,
      "ulations": 3670,
      "Ġtrad": 3671,
      "ĠJu": 3672,
      "Ġoutside": 3673,
      "Ġrelates": 3674,
      "Ġrecords": 3675,
      "ney": 3676,
      "Ġdidn": 3677,
      "Ġuncertainty": 3678,
      "Ġclosely": 3679,
      "Ġintegrated": 3680,
      "Ġissue": 3681,
      "Ġtraject": 3682,
      "Ġhistor": 3683,
      "ĠWilliam": 3684,
      "Ġmilest": 3685,
      "Ġencour": 3686,
      "55": 3687,
      "ah": 3688,
      "oving": 3689,
      "port": 3690,
      "Ġconc": 3691,
      "standing": 3692,
      "Ġbroader": 3693,
      "Ġengineering": 3694,
      "Ġanticipate": 3695,
      "Ġcritical": 3696,
      "Ġpiece": 3697,
      "ten": 3698,
      "Ġcamp": 3699,
      "ĠSanjay": 3700,
      "ĠMemory": 3701,
      "Ġ27": 3702,
      "Ġcompare": 3703,
      "umar": 3704,
      "Ġalloc": 3705,
      "Ġ2015": 3706,
      "ounts": 3707,
      "ĠKumar": 3708,
      "Ġdelivery": 3709,
      "Ġcreating": 3710,
      "Ġintroduct": 3711,
      "Ġachieved": 3712,
      "Ġcategory": 3713,
      "43": 3714,
      "GX": 3715,
      "Jen": 3716,
      "fers": 3717,
      "iving": 3718,
      "int": 3719,
      "Ġthreat": 3720,
      "ario": 3721,
      "Ġled": 3722,
      "ĠMore": 3723,
      "ĠDes": 3724,
      "aby": 3725,
      "eline": 3726,
      "Ġorig": 3727,
      "ĠChristopher": 3728,
      "Ġhelps": 3729,
      "Ġdisclo": 3730,
      "Ġworldwide": 3731,
      "lobally": 3732,
      "Ġdepend": 3733,
      "Ġacquisitions": 3734,
      "Ġrequirements": 3735,
      "Ġenabling": 3736,
      "market": 3737,
      "NA": 3738,
      "prem": 3739,
      "Ġut": 3740,
      "Ġhit": 3741,
      "Ġrenew": 3742,
      "ĠToshi": 3743,
      "ĠBa": 3744,
      "Ġexpectation": 3745,
      "ensor": 3746,
      "Ġbuying": 3747,
      "Ġpriorities": 3748,
      "ĠPCs": 3749,
      "Ġcycl": 3750,
      "Ġstandard": 3751,
      "Ġlayer": 3752,
      "Ġsubst": 3753,
      "Ġessentially": 3754,
      "Ġtrajectory": 3755,
      "di": 3756,
      "Ġreduced": 3757,
      "Ġlim": 3758,
      "ĠSand": 3759,
      "ĠDavid": 3760,
      "Ġrap": 3761,
      "Ġcompens": 3762,
      "Ġcomplex": 3763,
      "Ġ32": 3764,
      "ĠVivek": 3765,
      "ĠKress": 3766,
      "olution": 3767,
      "layer": 3768,
      "Ġspeak": 3769,
      "Ġcommunity": 3770,
      "Ġeconomic": 3771,
      "Ġreconcili": 3772,
      "Ġscenario": 3773,
      "Ġdemonstr": 3774,
      "Ġrapid": 3775,
      "gain": 3776,
      "lined": 3777,
      "tis": 3778,
      "Ġbott": 3779,
      "ĠApri": 3780,
      "Ġglobally": 3781,
      "ĠTotal": 3782,
      "Ġray": 3783,
      "ĠNomura": 3784,
      "ĠHP": 3785,
      "Ġremember": 3786,
      "Ġfactor": 3787,
      "Ġoffers": 3788,
      "Ġrole": 3789,
      "Ġregions": 3790,
      "ĠXe": 3791,
      "Ġconnected": 3792,
      "Force": 3793,
      "Ġsmartphone": 3794,
      "driving": 3795,
      "Ġpopular": 3796,
      "ĠCurtis": 3797,
      "ĠApril": 3798,
      "ane": 3799,
      "ĠRak": 3800,
      "ĠWest": 3801,
      "ĠPost": 3802,
      "ĠAny": 3803,
      "Ġallow": 3804,
      "ources": 3805,
      "Ġtaken": 3806,
      "ĠMarily": 3807,
      "lection": 3808,
      "Ġthoughts": 3809,
      "Ġoperational": 3810,
      "Ġpowerful": 3811,
      "Ġwafers": 3812,
      "Ġreductions": 3813,
      "Ġframewor": 3814,
      "ĠStrateg": 3815,
      "ĠXeon": 3816,
      "ĠMarilyn": 3817,
      "uary": 3818,
      "Ġwent": 3819,
      "ĠSP": 3820,
      "Ġcond": 3821,
      "Ġra": 3822,
      "ĠGood": 3823,
      "Ġvoice": 3824,
      "Ġperform": 3825,
      "itional": 3826,
      "Ġunless": 3827,
      "oseph": 3828,
      "Ġfeed": 3829,
      "Ġfinally": 3830,
      "ĠTeams": 3831,
      "Ġsaying": 3832,
      "Chris": 3833,
      "Ġasked": 3834,
      "Ġautomation": 3835,
      "Ġfunction": 3836,
      "Ġreceived": 3837,
      "Ġflexibility": 3838,
      "Ġrouting": 3839,
      "selves": 3840,
      "ck": 3841,
      "count": 3842,
      "opping": 3843,
      "Ġet": 3844,
      "Ġtough": 3845,
      "Ġdynam": 3846,
      "Ġlith": 3847,
      "ĠTuring": 3848,
      "ĠPh": 3849,
      "Ġenergy": 3850,
      "Ġtail": 3851,
      "Ġtransitions": 3852,
      "ephen": 3853,
      "ĠDevinder": 3854,
      "ĠSecurity": 3855,
      "Ġexecuting": 3856,
      "Ġprograms": 3857,
      "Ġintelligent": 3858,
      "Ġaccounting": 3859,
      "Ġdram": 3860,
      "Ġlicens": 3861,
      "Ġfavorable": 3862,
      "Ġconsolidated": 3863,
      "ĠJanuary": 3864,
      "Ġconcern": 3865,
      "ĠStrategist": 3866,
      "44": 3867,
      "aaS": 3868,
      "Ġhuge": 3869,
      "Ġaccom": 3870,
      "Ġguided": 3871,
      "Ġmodem": 3872,
      "Ġgenerally": 3873,
      "tract": 3874,
      "Ġextrem": 3875,
      "ĠOEMs": 3876,
      "Ġcommunic": 3877,
      "hannon": 3878,
      "ov": 3879,
      "Ġide": 3880,
      "Ġpus": 3881,
      "Ġpol": 3882,
      "Ġnecess": 3883,
      "Ġintent": 3884,
      "ĠLaw": 3885,
      "ĠJefferies": 3886,
      "ĠVR": 3887,
      "ĠVol": 3888,
      "Ġchip": 3889,
      "Ġconsumption": 3890,
      "ĠEVP": 3891,
      "Ġefficient": 3892,
      "Ġshipped": 3893,
      "ĠToday": 3894,
      "Ġinternational": 3895,
      "ĠTreasurer": 3896,
      "Bof": 3897,
      "ijay": 3898,
      "las": 3899,
      "va": 3900,
      "Ġwr": 3901,
      "Ġscal": 3902,
      "Ġfive": 3903,
      "Ġfield": 3904,
      "Ġpip": 3905,
      "Ġgiving": 3906,
      "Ġitself": 3907,
      "Ġ23": 3908,
      "embers": 3909,
      "oger": 3910,
      "Ġ35": 3911,
      "ificial": 3912,
      "Ġgamers": 3913,
      "ucing": 3914,
      "Ġpotentially": 3915,
      "Ġorganization": 3916,
      "BofA": 3917,
      "DR": 3918,
      "Good": 3919,
      "oy": 3920,
      "pos": 3921,
      "era": 3922,
      "Ġsess": 3923,
      "ison": 3924,
      "Ġlove": 3925,
      "Ġstream": 3926,
      "ĠWolfgang": 3927,
      "ĠEvery": 3928,
      "ĠBell": 3929,
      "ĠHome": 3930,
      "Ġtracing": 3931,
      "Ġresearch": 3932,
      "Ġnoted": 3933,
      "ĠJP": 3934,
      "Ġwouldn": 3935,
      "rypt": 3936,
      "Ġdepreci": 3937,
      "Ġconsumers": 3938,
      "ĠAmericas": 3939,
      "Ġhoping": 3940,
      "Ġcomparison": 3941,
      "ĠHeather": 3942,
      "Ġcaut": 3943,
      "ouglas": 3944,
      "Ġdynamic": 3945,
      "Moving": 3946,
      "ery": 3947,
      "atis": 3948,
      "Ġmig": 3949,
      "ĠRade": 3950,
      "oot": 3951,
      "Ġtrue": 3952,
      "oci": 3953,
      "Ġinvestors": 3954,
      "Ġmillions": 3955,
      "Ġsecondly": 3956,
      "Ġotherwise": 3957,
      "agu": 3958,
      "Ġchanging": 3959,
      "Ġslides": 3960,
      "Ġequity": 3961,
      "Ġforeign": 3962,
      "Ġspeed": 3963,
      "Ġtook": 3964,
      "Ġhistory": 3965,
      "Ġhighlighted": 3966,
      "Ġstructure": 3967,
      "Ġartificial": 3968,
      "Ġreplace": 3969,
      "Ġlicensing": 3970,
      "Ġextremely": 3971,
      "ĠBellini": 3972,
      "ĠRadeon": 3973,
      "53": 3974,
      "urring": 3975,
      "ĠCredit": 3976,
      "ilization": 3977,
      "ĠHos": 3978,
      "Ġdecision": 3979,
      "Ġmeeting": 3980,
      "ĠAssoci": 3981,
      "Ġconcludes": 3982,
      "Ġtransactional": 3983,
      "Ġupgrades": 3984,
      "Ġfulfillment": 3985,
      "ĠBaird": 3986,
      "48": 3987,
      "49": 3988,
      "Marily": 3989,
      "aura": 3990,
      "fort": 3991,
      "onal": 3992,
      "reg": 3993,
      "rew": 3994,
      "enning": 3995,
      "iter": 3996,
      "estri": 3997,
      "Ġdeals": 3998,
      "ĠBr": 3999,
      "ĠHenning": 4000,
      "ecause": 4001,
      "Ġ33": 4002,
      "Ġ38": 4003,
      "rent": 4004,
      "othing": 4005,
      "ĠDeep": 4006,
      "Ġfollowed": 4007,
      "Ġreality": 4008,
      "Ġprimary": 4009,
      "Ġvolat": 4010,
      "Ġtypically": 4011,
      "ĠMaestri": 4012,
      "Ġdifferentiated": 4013,
      "imona": 4014,
      "Marilyn": 4015,
      "ĠHenninger": 4016,
      "Colette": 4017,
      "Sec": 4018,
      "yper": 4019,
      "atives": 4020,
      "orth": 4021,
      "Ġfix": 4022,
      "cho": 4023,
      "seini": 4024,
      "Ġnever": 4025,
      "ilicon": 4026,
      "Ġsoon": 4027,
      "Ġsecular": 4028,
      "Ġprices": 4029,
      "Ġ70": 4030,
      "Ġdeveloper": 4031,
      "Ġdeclines": 4032,
      "Ġbroadly": 4033,
      "Ġintroduce": 4034,
      "ierre": 4035,
      "Ġdividends": 4036,
      "Ġincredible": 4037,
      "Ġfabs": 4038,
      "ĠGeForce": 4039,
      "Ġfamily": 4040,
      "ĠHosseini": 4041,
      "52": 4042,
      "Point": 4043,
      "dle": 4044,
      "he": 4045,
      "ĠCustom": 4046,
      "ĠCore": 4047,
      "ĠDan": 4048,
      "rief": 4049,
      "Ġattract": 4050,
      "Ġgets": 4051,
      "Ġdifference": 4052,
      "efore": 4053,
      "Ġpriority": 4054,
      "Ġprovides": 4055,
      "Ġmonthly": 4056,
      "Ġrefresh": 4057,
      "Ġindicated": 4058,
      "Ġpressure": 4059,
      "Ġfastest": 4060,
      "Ġheard": 4061,
      "Ġreturned": 4062,
      "where": 4063,
      "ĠMaybe": 4064,
      "Ġeasier": 4065,
      "Ġpattern": 4066,
      "ĠSeptember": 4067,
      "Ġpipeline": 4068,
      "47": 4069,
      "Goldman": 4070,
      "de": 4071,
      "Ġsorry": 4072,
      "Ġcause": 4073,
      "Ġdat": 4074,
      "ĠAlex": 4075,
      "ĠCorp": 4076,
      "ĠSome": 4077,
      "Ġrecurring": 4078,
      "ĠChris": 4079,
      "ĠProduct": 4080,
      "ĠHowever": 4081,
      "ĠCommercial": 4082,
      "Ġagreement": 4083,
      "Ġrepurchases": 4084,
      "Ġlocal": 4085,
      "Ġenhance": 4086,
      "Ġtechnical": 4087,
      "Ġgovernment": 4088,
      "Ġcompensation": 4089,
      "Ġconditions": 4090,
      "First": 4091,
      "aff": 4092,
      "ike": 4093,
      "Ġboard": 4094,
      "Ġhour": 4095,
      "eters": 4096,
      "Ġbegan": 4097,
      "ĠMy": 4098,
      "ĠRome": 4099,
      "Ġul": 4100,
      "ĠBecause": 4101,
      "Ġcontact": 4102,
      "Ġvision": 4103,
      "Ġtele": 4104,
      "istics": 4105,
      "orporated": 4106,
      "rish": 4107,
      "Ġannuity": 4108,
      "Ġlaunches": 4109,
      "Ġphones": 4110,
      "Ġadvance": 4111,
      "ĠCPUs": 4112,
      "Ġexcluding": 4113,
      "Ġdiluted": 4114,
      "Ġsector": 4115,
      "Finally": 4116,
      "Got": 4117,
      "single": 4118,
      "td": 4119,
      "Ġcross": 4120,
      "Ġceter": 4121,
      "than": 4122,
      "Ġprom": 4123,
      "ĠRobert": 4124,
      "ĠNick": 4125,
      "Ġalthough": 4126,
      "Ġtrust": 4127,
      "ĠLog": 4128,
      "ĠLtd": 4129,
      "izations": 4130,
      "Ġunp": 4131,
      "Ġaggress": 4132,
      "Ġmodest": 4133,
      "prises": 4134,
      "pects": 4135,
      "ĠAlan": 4136,
      "Ġprofile": 4137,
      "Ġheav": 4138,
      "Chuck": 4139,
      "Ġdesigned": 4140,
      "ĠNowak": 4141,
      "Ġheadwinds": 4142,
      "Ġagreements": 4143,
      "Ġbehind": 4144,
      "Ġsafe": 4145,
      "Ġnatural": 4146,
      "Ġlife": 4147,
      "Ġpolic": 4148,
      "Ġcetera": 4149,
      "ĠNickl": 4150,
      "58": 4151,
      "aus": 4152,
      "off": 4153,
      "ray": 4154,
      "ommend": 4155,
      "Ġnothing": 4156,
      "usque": 4157,
      "Ġonce": 4158,
      "oles": 4159,
      "ifel": 4160,
      "ĠPas": 4161,
      "Ġexpend": 4162,
      "ĠHarlan": 4163,
      "Ġimplement": 4164,
      "Ġleg": 4165,
      "Ġserve": 4166,
      "Ġactions": 4167,
      "ĠSuite": 4168,
      "undred": 4169,
      "Ġdeployment": 4170,
      "Ġdirectly": 4171,
      "hanna": 4172,
      "value": 4173,
      "Ġsubstant": 4174,
      "Ġbottom": 4175,
      "usquehanna": 4176,
      "54": 4177,
      "57": 4178,
      "AS": 4179,
      "During": 4180,
      "ei": 4181,
      "muth": 4182,
      "ymore": 4183,
      "Ġaud": 4184,
      "erv": 4185,
      "Ġfoot": 4186,
      "ĠTensor": 4187,
      "Ġasking": 4188,
      "ĠDave": 4189,
      "rial": 4190,
      "ĠBMO": 4191,
      "ape": 4192,
      "ĠAnmuth": 4193,
      "ĠJoe": 4194,
      "Ġoutstanding": 4195,
      "Ġdiscip": 4196,
      "Christopher": 4197,
      "Ġcollect": 4198,
      "ĠSeymore": 4199,
      "Ġintegration": 4200,
      "Ġcycles": 4201,
      "Ġexpendit": 4202,
      "Barclays": 4203,
      "vin": 4204,
      "erce": 4205,
      "Ġoc": 4206,
      "Ġoptions": 4207,
      "Ġhundred": 4208,
      "ĠSher": 4209,
      "ĠMusic": 4210,
      "idan": 4211,
      "Ġalign": 4212,
      "ĠLast": 4213,
      "Ġmarketplace": 4214,
      "Ġrecommend": 4215,
      "ancy": 4216,
      "Ġchoo": 4217,
      "ĠIntellig": 4218,
      "angu": 4219,
      "Ġextent": 4220,
      "Ġdivers": 4221,
      "ography": 4222,
      "Ġenables": 4223,
      "Ġcomplete": 4224,
      "Ġparticipating": 4225,
      "Ġcontracts": 4226,
      "ĠNetworking": 4227,
      "ĠSmith": 4228,
      "ĠSheridan": 4229,
      "At": 4230,
      "Ross": 4231,
      "reh": 4232,
      "atically": 4233,
      "Ġsiz": 4234,
      "Ġsound": 4235,
      "Ġpe": 4236,
      "Ġmembers": 4237,
      "llen": 4238,
      "ĠSi": 4239,
      "Ġseem": 4240,
      "ĠRams": 4241,
      "Ġ29": 4242,
      "Ġcompreh": 4243,
      "ĠUV": 4244,
      "Ġindustrial": 4245,
      "Ġimportantly": 4246,
      "Ġmanaging": 4247,
      "Ġdeveloping": 4248,
      "Ġtypes": 4249,
      "Ġsubject": 4250,
      "ĠTimothy": 4251,
      "Ġnotebooks": 4252,
      "Ġsmartphones": 4253,
      "Ġbecoming": 4254,
      "Ġvehicles": 4255,
      "Ġtraditional": 4256,
      "Ġallocation": 4257,
      "ĠRamsay": 4258,
      "Luca": 4259,
      "Next": 4260,
      "SG": 4261,
      "Ġsatis": 4262,
      "orge": 4263,
      "ĠAgain": 4264,
      "Ġlangu": 4265,
      "ĠEm": 4266,
      "ĠFrom": 4267,
      "haney": 4268,
      "ĠLip": 4269,
      "Ġplaces": 4270,
      "Ġnews": 4271,
      "ifications": 4272,
      "Ġresulting": 4273,
      "Ġdespite": 4274,
      "Ġembedded": 4275,
      "Ġdiscussions": 4276,
      "Ġreflected": 4277,
      "ĠServer": 4278,
      "ĠInstitut": 4279,
      "ĠMahaney": 4280,
      "Ġoptimistic": 4281,
      "Ġyields": 4282,
      "Ġdoubled": 4283,
      "Ġcontrol": 4284,
      "Ġintroduction": 4285,
      "Ġsatisf": 4286,
      "UV": 4287,
      "cept": 4288,
      "ĠRed": 4289,
      "ĠWear": 4290,
      "olving": 4291,
      "ĠFeb": 4292,
      "Ġallows": 4293,
      "Ġcann": 4294,
      "ĠJensen": 4295,
      "ĠCorporate": 4296,
      "Ġmoder": 4297,
      "Ġevents": 4298,
      "Ġ3400": 4299,
      "Ġfeedback": 4300,
      "Ġreplacement": 4301,
      "Ġexpenditures": 4302,
      "Ernie": 4303,
      "Wolfgang": 4304,
      "br": 4305,
      "view": 4306,
      "Ġoperator": 4307,
      "aty": 4308,
      "ale": 4309,
      "ented": 4310,
      "ĠMil": 4311,
      "Ġproper": 4312,
      "Ġcomfort": 4313,
      "ĠThose": 4314,
      "acis": 4315,
      "ĠFP": 4316,
      "Ġtransl": 4317,
      "Ġconsoles": 4318,
      "Ġimpacting": 4319,
      "Ġlots": 4320,
      "ired": 4321,
      "ireless": 4322,
      "ĠEquities": 4323,
      "Ġdigit": 4324,
      "plus": 4325,
      "Ġprofitable": 4326,
      "Ġhappened": 4327,
      "Ġsellers": 4328,
      "Ġcomponents": 4329,
      "Ġrobot": 4330,
      "ĠOverall": 4331,
      "aymond": 4332,
      "ĠMobileye": 4333,
      "ĠSteves": 4334,
      "Ġrais": 4335,
      "Second": 4336,
      "ĠLipacis": 4337,
      "59": 4338,
      "grow": 4339,
      "ert": 4340,
      "Ġsold": 4341,
      "Ġpath": 4342,
      "ĠAir": 4343,
      "Ġhost": 4344,
      "Ġrein": 4345,
      "asing": 4346,
      "ĠCould": 4347,
      "ceed": 4348,
      "Ġexchange": 4349,
      "ĠWong": 4350,
      "ĠOperator": 4351,
      "Ġ2021": 4352,
      "Ġsecurities": 4353,
      "Ġassess": 4354,
      "Ġsuppli": 4355,
      "Ġprocessing": 4356,
      "Ġauth": 4357,
      "Ġtargets": 4358,
      "Ġcontribution": 4359,
      "Ġmaintain": 4360,
      "Ġanticipated": 4361,
      "Ġchallenging": 4362,
      "Ġsupercom": 4363,
      "Ġrobust": 4364,
      "Devinder": 4365,
      "ĠInstitutional": 4366,
      "51": 4367,
      "70": 4368,
      "hones": 4369,
      "Ġbrief": 4370,
      "omit": 4371,
      "ched": 4372,
      "ĠMos": 4373,
      "ĠDGX": 4374,
      "ĠWor": 4375,
      "ĠEric": 4376,
      "ĠThird": 4377,
      "ĠGross": 4378,
      "ĠNet": 4379,
      "ĠIncorporated": 4380,
      "Ġcover": 4381,
      "Ġmodern": 4382,
      "ĠiPhones": 4383,
      "Ġmonitor": 4384,
      "Ġ80": 4385,
      "Ġputs": 4386,
      "Ġcarry": 4387,
      "ĠFinance": 4388,
      "ĠSemiconductors": 4389,
      "Ġorigin": 4390,
      "ĠPascal": 4391,
      "ĠFPG": 4392,
      "56": 4393,
      "Jensen": 4394,
      "cing": 4395,
      "iec": 4396,
      "Ġsilicon": 4397,
      "Ġcrypt": 4398,
      "Ġpick": 4399,
      "Ġrender": 4400,
      "Ġreduce": 4401,
      "Ġnanometer": 4402,
      "ĠPower": 4403,
      "Ġrich": 4404,
      "ults": 4405,
      "ĠGD": 4406,
      "ooking": 4407,
      "Ġenough": 4408,
      "ousands": 4409,
      "ances": 4410,
      "class": 4411,
      "Ġshared": 4412,
      "ĠSuh": 4413,
      "Ġbacklog": 4414,
      "Ġengage": 4415,
      "Ġcomparable": 4416,
      "Ġframework": 4417,
      "ĠVolta": 4418,
      "Ġult": 4419,
      "Ġsuppliers": 4420,
      "Ad": 4421,
      "Citigroup": 4422,
      "ining": 4423,
      "Ġsource": 4424,
      "itative": 4425,
      "Ġmass": 4426,
      "Ġrelev": 4427,
      "olin": 4428,
      "Ġanalyst": 4429,
      "ĠBlayne": 4430,
      "ulation": 4431,
      "emand": 4432,
      "Ġ500": 4433,
      "Ġremote": 4434,
      "Ġguiding": 4435,
      "Ġroom": 4436,
      "iveness": 4437,
      "Ġenvironments": 4438,
      "Ġexecuted": 4439,
      "Ġarchitectural": 4440,
      "Ġefficiencies": 4441,
      "Ġrecognize": 4442,
      "Ġestimate": 4443,
      "Ġinitiatives": 4444,
      "Ġdepreciation": 4445,
      "Ġfixed": 4446,
      "ĠIntelligent": 4447,
      "Before": 4448,
      "ires": 4449,
      "overy": 4450,
      "Ġaway": 4451,
      "enhe": 4452,
      "Ġcorporate": 4453,
      "ouse": 4454,
      "Ġfant": 4455,
      "Ġpur": 4456,
      "Ġgroup": 4457,
      "ĠTa": 4458,
      "Ġcongr": 4459,
      "ĠWal": 4460,
      "ppenhe": 4461,
      "Ġdeceler": 4462,
      "iring": 4463,
      "ĠErnie": 4464,
      "Ġshar": 4465,
      "ande": 4466,
      "ĠFerr": 4467,
      "lock": 4468,
      "Ġstarts": 4469,
      "Ġfactory": 4470,
      "Ġenterprises": 4471,
      "Ġmanaged": 4472,
      "Ġregion": 4473,
      "Ġinsights": 4474,
      "ĠHuaw": 4475,
      "Ġweaker": 4476,
      "Ġchallenge": 4477,
      "Ġexcell": 4478,
      "Ġsteps": 4479,
      "ĠShah": 4480,
      "Micron": 4481,
      "Ġrelationships": 4482,
      "Ġreconciliation": 4483,
      "Ġpush": 4484,
      "Ġsession": 4485,
      "ĠLogic": 4486,
      "Ġfantastic": 4487,
      "ppenheimer": 4488,
      "ĠFerragu": 4489,
      "ĠHuawei": 4490,
      "JP": 4491,
      "QL": 4492,
      "gg": 4493,
      "hm": 4494,
      "rete": 4495,
      "atulations": 4496,
      "ened": 4497,
      "Ġcle": 4498,
      "Ġpass": 4499,
      "Ġmat": 4500,
      "Ġmic": 4501,
      "omas": 4502,
      "ĠMaps": 4503,
      "ĠPix": 4504,
      "ĠResults": 4505,
      "ung": 4506,
      "Ġsugg": 4507,
      "Ġ37": 4508,
      "Ġnote": 4509,
      "Ġclass": 4510,
      "itionally": 4511,
      "rence": 4512,
      "clus": 4513,
      "ĠStephen": 4514,
      "ival": 4515,
      "Ġchar": 4516,
      "Ġmostly": 4517,
      "Ġhappens": 4518,
      "Ġphot": 4519,
      "Ġinteresting": 4520,
      "Ġinside": 4521,
      "Ġminut": 4522,
      "Ġorganizations": 4523,
      "Ġhope": 4524,
      "force": 4525,
      "Ġready": 4526,
      "ĠHari": 4527,
      "ĠLawrence": 4528,
      "Ġoccur": 4529,
      "61": 4530,
      "All": 4531,
      "From": 4532,
      "power": 4533,
      "scale": 4534,
      "Ġident": 4535,
      "Ġwal": 4536,
      "Ġsamp": 4537,
      "ana": 4538,
      "isions": 4539,
      "Ġpiec": 4540,
      "edge": 4541,
      "ĠSaaS": 4542,
      "iff": 4543,
      "Ġjour": 4544,
      "acter": 4545,
      "ĠVice": 4546,
      "Ġbits": 4547,
      "ankly": 4548,
      "Ġsupporting": 4549,
      "ĠXPoint": 4550,
      "Ġquality": 4551,
      "Ġgeographies": 4552,
      "tai": 4553,
      "Ġrepresents": 4554,
      "expected": 4555,
      "Ġrepurchase": 4556,
      "ruary": 4557,
      "Ġfacilities": 4558,
      "Ġprogrammatic": 4559,
      "ĠRakers": 4560,
      "Ġvolatility": 4561,
      "Ġheavily": 4562,
      "Ġpolicy": 4563,
      "Ġcharacter": 4564,
      "Ġpieces": 4565,
      "80": 4566,
      "BA": 4567,
      "DA": 4568,
      "Ladies": 4569,
      "ium": 4570,
      "ki": 4571,
      "Ġtab": 4572,
      "Ġtight": 4573,
      "ene": 4574,
      "Ġcities": 4575,
      "ariff": 4576,
      "Ġsem": 4577,
      "sec": 4578,
      "ilot": 4579,
      "Ġshopping": 4580,
      "ĠNove": 4581,
      "ĠNorth": 4582,
      "ĠFr": 4583,
      "ĠLake": 4584,
      "Ġdrives": 4585,
      "ĠUp": 4586,
      "Ġworked": 4587,
      "Ġauto": 4588,
      "Ġresulted": 4589,
      "Ġsmaller": 4590,
      "Ġrespons": 4591,
      "Ġeconomy": 4592,
      "Ġpresentation": 4593,
      "ĠDanely": 4594,
      "Ġsatisfaction": 4595,
      "ĠWearables": 4596,
      "Ġauthor": 4597,
      "ĠNovember": 4598,
      "Wh": 4599,
      "You": 4600,
      "greg": 4601,
      "ners": 4602,
      "Ġthousands": 4603,
      "enet": 4604,
      "Ġsci": 4605,
      "Ġpack": 4606,
      "Ġmatter": 4607,
      "Ġdom": 4608,
      "icol": 4609,
      "ĠSQL": 4610,
      "lements": 4611,
      "Ġones": 4612,
      "Ġstud": 4613,
      "ĠOf": 4614,
      "ĠGCP": 4615,
      "ĠNA": 4616,
      "aptop": 4617,
      "Ġmarketable": 4618,
      "Ġenj": 4619,
      "Ġtransaction": 4620,
      "Ġhelped": 4621,
      "itting": 4622,
      "lications": 4623,
      "aves": 4624,
      "Ġdescri": 4625,
      "Ġequival": 4626,
      "Ġfiled": 4627,
      "Ġroadm": 4628,
      "Ġrequired": 4629,
      "atters": 4630,
      "ĠNVMe": 4631,
      "Ġtailwind": 4632,
      "CrÃ©dit": 4633,
      "Harlan": 4634,
      "LLP": 4635,
      "VE": 4636,
      "eff": 4637,
      "uff": 4638,
      "Ġtariff": 4639,
      "Ġpar": 4640,
      "Ġmatters": 4641,
      "ĠThen": 4642,
      "ĠThomas": 4643,
      "ĠNicol": 4644,
      "ĠLLLP": 4645,
      "ĠJank": 4646,
      "ĠYear": 4647,
      "Ġneeded": 4648,
      "Ġgenerate": 4649,
      "owski": 4650,
      "Ġamaz": 4651,
      "Ġsubscri": 4652,
      "Ġsimple": 4653,
      "Ġphys": 4654,
      "Ġdeployments": 4655,
      "Ġfeature": 4656,
      "Ġcloser": 4657,
      "Ġaffected": 4658,
      "Ġsummary": 4659,
      "Ġlimited": 4660,
      "Ġlanguage": 4661,
      "ĠFebruary": 4662,
      "Ġclean": 4663,
      "Ġsuggest": 4664,
      "ĠNicolaus": 4665,
      "ĠJankowski": 4666,
      "Vivek": 4667,
      "iper": 4668,
      "su": 4669,
      "Ġwon": 4670,
      "Ġcard": 4671,
      "Ġpause": 4672,
      "Ġmath": 4673,
      "Ġgone": 4674,
      "ĠCat": 4675,
      "idy": 4676,
      "Ġstuff": 4677,
      "ading": 4678,
      "ĠEd": 4679,
      "Ġshows": 4680,
      "aren": 4681,
      "unov": 4682,
      "xton": 4683,
      "Ġaggreg": 4684,
      "eful": 4685,
      "Ġobject": 4686,
      "Ġcreators": 4687,
      "Ġdetect": 4688,
      "Ġfrankly": 4689,
      "Ġpurchases": 4690,
      "Ġclosed": 4691,
      "Ġadjac": 4692,
      "Ġtransactions": 4693,
      "Ġclarification": 4694,
      "ĠPaxton": 4695,
      "Deutsche": 4696,
      "aymo": 4697,
      "Ġproblem": 4698,
      "Ġbuyback": 4699,
      "ĠMilunov": 4700,
      "Ġwalk": 4701,
      "ĠMilunovich": 4702,
      "62": 4703,
      "74": 4704,
      "Al": 4705,
      "Ġcut": 4706,
      "Ġbill": 4707,
      "Ġmaps": 4708,
      "ĠSeb": 4709,
      "Ġourselves": 4710,
      "ĠTer": 4711,
      "Ġconvert": 4712,
      "ĠWaymo": 4713,
      "ĠOpt": 4714,
      "emic": 4715,
      "astian": 4716,
      "ferencing": 4717,
      "ĠFBA": 4718,
      "Ġresources": 4719,
      "Ġimpacts": 4720,
      "osed": 4721,
      "Ġappropri": 4722,
      "coming": 4723,
      "Ġdeveloped": 4724,
      "Ġinventories": 4725,
      "Ġmachines": 4726,
      "Ġputting": 4727,
      "Ġaccounts": 4728,
      "Ġpowered": 4729,
      "Ġrecognized": 4730,
      "Ġfoundation": 4731,
      "Ġcompleted": 4732,
      "incip": 4733,
      "Ġbreakthrough": 4734,
      "Ġexceeded": 4735,
      "Ġgigaby": 4736,
      "Ġidea": 4737,
      "Ġscaling": 4738,
      "Ġcomprehensive": 4739,
      "Ġoriginal": 4740,
      "Ġultimately": 4741,
      "ĠPixel": 4742,
      "ĠSebastian": 4743,
      "Hub": 4744,
      "RBC": 4745,
      "aign": 4746,
      "athan": 4747,
      "Ġsched": 4748,
      "arhan": 4749,
      "itHub": 4750,
      "ists": 4751,
      "Ġpenet": 4752,
      "ĠSE": 4753,
      "ĠSG": 4754,
      "ĠSusquehanna": 4755,
      "ĠRoger": 4756,
      "Ġneural": 4757,
      "Ġgrown": 4758,
      "ĠGitHub": 4759,
      "Ġworks": 4760,
      "berty": 4761,
      "Ġinvested": 4762,
      "beam": 4763,
      "Ġcapt": 4764,
      "ĠStifel": 4765,
      "Ġdiscrete": 4766,
      "Ġlaw": 4767,
      "Ġeduc": 4768,
      "Ġreports": 4769,
      "Ġsimp": 4770,
      "Ġvolumes": 4771,
      "Ġpayments": 4772,
      "ĠMax": 4773,
      "Ġlogistics": 4774,
      "Ġtraffic": 4775,
      "Ġeasy": 4776,
      "Ġdisp": 4777,
      "Ġprivate": 4778,
      "Ġprivacy": 4779,
      "...": 4780,
      "Ġscenarios": 4781,
      "ĠHPC": 4782,
      "Ġcomparisons": 4783,
      "Ġamazing": 4784,
      "500": 4785,
      "Evercore": 4786,
      "land": 4787,
      "pe": 4788,
      "Ġven": 4789,
      "Ġter": 4790,
      "enom": 4791,
      "Ġsale": 4792,
      "Ġfue": 4793,
      "ĠAug": 4794,
      "Ġgate": 4795,
      "Ġhis": 4796,
      "ĠClient": 4797,
      "utive": 4798,
      "ĠTLC": 4799,
      "ĠMur": 4800,
      "ĠMatt": 4801,
      "Ġstable": 4802,
      "ĠRa": 4803,
      "ifying": 4804,
      "ĠInf": 4805,
      "ĠGraphics": 4806,
      "ĠLe": 4807,
      "Ġrecovery": 4808,
      "rict": 4809,
      "Ġassets": 4810,
      "ĠAdd": 4811,
      "Ġcompetitors": 4812,
      "Ġremaining": 4813,
      "Ġdecade": 4814,
      "Ġcountry": 4815,
      "Ġheadcount": 4816,
      "Ġmiddle": 4817,
      "ĠPartners": 4818,
      "Ġinspect": 4819,
      "Ġprojects": 4820,
      "Ġspeaking": 4821,
      "Ġfoundry": 4822,
      "Ġpersonal": 4823,
      "Ġengineers": 4824,
      "ĠZen": 4825,
      "Ġsafety": 4826,
      "Ġnature": 4827,
      "Ġannouncement": 4828,
      "Ġextraord": 4829,
      "Ġnicely": 4830,
      "ĠPlus": 4831,
      "Ġrapidly": 4832,
      "Ġdramatically": 4833,
      "Ġmigr": 4834,
      "secutive": 4835,
      "69": 4836,
      "Cs": 4837,
      "kip": 4838,
      "Ġwireless": 4839,
      "ĠAhm": 4840,
      "ices": 4841,
      "ĠCash": 4842,
      "earned": 4843,
      "ĠSD": 4844,
      "ĠSK": 4845,
      "ĠDUV": 4846,
      "Ġconsecutive": 4847,
      "Ġrather": 4848,
      "Ġupside": 4849,
      "ĠFQ": 4850,
      "ĠFiscal": 4851,
      "Ġlever": 4852,
      "Ġunearned": 4853,
      "ĠSuva": 4854,
      "Ġeverybody": 4855,
      "Ġlaunching": 4856,
      "Ġbrings": 4857,
      "Ġinnovative": 4858,
      "Ġdeployed": 4859,
      "ĠHuberty": 4860,
      "Ġrespond": 4861,
      "ĠSwitch": 4862,
      "insner": 4863,
      "ĠZinsner": 4864,
      "Ġsomewhere": 4865,
      "Ġdistributed": 4866,
      "position": 4867,
      "Ġdatab": 4868,
      "ĠAlexa": 4869,
      "Ġsounds": 4870,
      "Ġvend": 4871,
      "No": 4872,
      "brish": 4873,
      "ued": 4874,
      "Ġtou": 4875,
      "atthe": 4876,
      "Ġdial": 4877,
      "Ġdensity": 4878,
      "Ġlate": 4879,
      "ĠRet": 4880,
      "riv": 4881,
      "ĠOct": 4882,
      "Ġrang": 4883,
      "ĠGr": 4884,
      "Ġshif": 4885,
      "Ġalone": 4886,
      "areh": 4887,
      "Ġvast": 4888,
      "ĠJaff": 4889,
      "ancing": 4890,
      "Ġindivid": 4891,
      "Ġworkers": 4892,
      "calable": 4893,
      "Ġinnovate": 4894,
      "Ġrestruct": 4895,
      "Ġnormalized": 4896,
      "Ġadjustments": 4897,
      "Ġdoubling": 4898,
      "Ġreducing": 4899,
      "Ġdecrease": 4900,
      "Ġfundamental": 4901,
      "Ġutilization": 4902,
      "Ġhundreds": 4903,
      "Ġcomfortable": 4904,
      "ĠInfrastructure": 4905,
      "atthew": 4906,
      "200": 4907,
      "86": 4908,
      "Cowen": 4909,
      "Hi": 4910,
      "Ke": 4911,
      "ech": 4912,
      "fect": 4913,
      "ging": 4914,
      "sing": 4915,
      "Ġsyn": 4916,
      "ications": 4917,
      "Ġlaptop": 4918,
      "ĠShannon": 4919,
      "ĠScalable": 4920,
      "leading": 4921,
      "qual": 4922,
      "ĠDuring": 4923,
      "Ġstage": 4924,
      "elt": 4925,
      "acific": 4926,
      "Ġupcoming": 4927,
      "Ġintensity": 4928,
      "econom": 4929,
      "Ġ41": 4930,
      "efully": 4931,
      "Ġ65": 4932,
      "ava": 4933,
      "Ġdeclining": 4934,
      "ATA": 4935,
      "Ġinterested": 4936,
      "ĠCons": 4937,
      "Ġevolve": 4938,
      "Ġshortages": 4939,
      "Ġsurpris": 4940,
      "Ġshowing": 4941,
      "Ġparticipation": 4942,
      "ĠUnited": 4943,
      "Ġcommitments": 4944,
      "Ġannouncements": 4945,
      "Ġquantify": 4946,
      "ĠPlatform": 4947,
      "ĠJuly": 4948,
      "Ġmilestone": 4949,
      "Ġexcellent": 4950,
      "Ġaggregate": 4951,
      "athanson": 4952,
      "ĠJaffray": 4953,
      "App": 4954,
      "ik": 4955,
      "ule": 4956,
      "Ġwrap": 4957,
      "Ġsens": 4958,
      "Ġbl": 4959,
      "ĠAAP": 4960,
      "Ġreli": 4961,
      "chang": 4962,
      "ersonal": 4963,
      "ules": 4964,
      "Ġcompli": 4965,
      "ume": 4966,
      "unications": 4967,
      "ĠJim": 4968,
      "ighted": 4969,
      "udible": 4970,
      "oney": 4971,
      "ĠChrom": 4972,
      "Ġcurve": 4973,
      "Ġthroughput": 4974,
      "Ġrepe": 4975,
      "Ġlineup": 4976,
      "Int": 4977,
      "anometers": 4978,
      "ĠCOGS": 4979,
      "Ġlearn": 4980,
      "Ġassuming": 4981,
      "Ġinteract": 4982,
      "Ġarchitectures": 4983,
      "Ġdecisions": 4984,
      "Ġeffectively": 4985,
      "pecific": 4986,
      "ledge": 4987,
      "Amit": 4988,
      "Ġ606": 4989,
      "Ġrepresented": 4990,
      "Ġattach": 4991,
      "Ġfunct": 4992,
      "Ġmedium": 4993,
      "Ġposted": 4994,
      "Ġstreaming": 4995,
      "Ġcautious": 4996,
      "Ġdisciplined": 4997,
      "Ġsupercomput": 4998,
      "ĠAugust": 4999,
      "ĠSKU": 5000,
      "ĠOctober": 5001,
      "ĠAAPL": 5002,
      "He": 5003,
      "Operating": 5004,
      "Sanford": 5005,
      "eper": 5006,
      "gor": 5007,
      "ience": 5008,
      "Ġwareh": 5009,
      "Ġsix": 5010,
      "itud": 5011,
      "anox": 5012,
      "almon": 5013,
      "ises": 5014,
      "rosoft": 5015,
      "ĠACI": 5016,
      "Ġhyper": 5017,
      "ĠCas": 5018,
      "ĠSalmon": 5019,
      "chand": 5020,
      "uty": 5021,
      "usi": 5022,
      "ĠTal": 5023,
      "ĠMell": 5024,
      "Ġdel": 5025,
      "Ġdeeper": 5026,
      "ĠPersonal": 5027,
      "ĠWeb": 5028,
      "Ġmark": 5029,
      "ardin": 5030,
      "Ġalgor": 5031,
      "ĠJoseph": 5032,
      "udg": 5033,
      "Ġtransport": 5034,
      "Ġsignals": 5035,
      "Ġ63": 5036,
      "Ġimportance": 5037,
      "Ġrealize": 5038,
      "Ġpriorit": 5039,
      "Ġconstruct": 5040,
      "inaudible": 5041,
      "ĠService": 5042,
      "Ġreporting": 5043,
      "Ġphase": 5044,
      "Ġoperate": 5045,
      "Ġplaying": 5046,
      "Ġengaged": 5047,
      "ĠJustin": 5048,
      "Ġoptimize": 5049,
      "Ġmacroeconom": 5050,
      "ĠKeith": 5051,
      "Ġsustainable": 5052,
      "Ġtesting": 5053,
      "Ġverticals": 5054,
      "Today": 5055,
      "Ġrelevant": 5056,
      "Ġminutes": 5057,
      "Ġjourney": 5058,
      "Ġinspection": 5059,
      "Intel": 5060,
      "ĠMellanox": 5061,
      "Ġalgorith": 5062,
      "ho": 5063,
      "hdi": 5064,
      "wer": 5065,
      "Ġwide": 5066,
      "Ġcris": 5067,
      "Ġflo": 5068,
      "Ġpand": 5069,
      "edi": 5070,
      "ĠCass": 5071,
      "ĠSimona": 5072,
      "Ġsection": 5073,
      "ĠBy": 5074,
      "ĠGardin": 5075,
      "ĠFort": 5076,
      "Ġvia": 5077,
      "answer": 5078,
      "like": 5079,
      "Ġrespective": 5080,
      "ĠJV": 5081,
      "ĠKid": 5082,
      "Ġkinds": 5083,
      "Ġ75": 5084,
      "ĠAsia": 5085,
      "Ġleader": 5086,
      "Ġstrengthening": 5087,
      "Ġinnovations": 5088,
      "Ġamong": 5089,
      "teens": 5090,
      "inese": 5091,
      "Ġdeploying": 5092,
      "Ġeval": 5093,
      "Ġcompletely": 5094,
      "Ġmultiyear": 5095,
      "ĠCommunications": 5096,
      "Ġconversations": 5097,
      "Ġessential": 5098,
      "Mehdi": 5099,
      "Ġcampaign": 5100,
      "ĠEmbedded": 5101,
      "Ġmassive": 5102,
      "Ġequivalents": 5103,
      "ĠAhmad": 5104,
      "Ġpandemic": 5105,
      "ĠCassidy": 5106,
      "ĠGardiner": 5107,
      "64": 5108,
      "bre": 5109,
      "cket": 5110,
      "par": 5111,
      "Ġcad": 5112,
      "arin": 5113,
      "Ġblock": 5114,
      "Ġmess": 5115,
      "Ġmoney": 5116,
      "Ġladies": 5117,
      "ĠSriv": 5118,
      "iller": 5119,
      "Ġproceed": 5120,
      "ĠRaymond": 5121,
      "ĠEven": 5122,
      "ĠEllen": 5123,
      "ĠPierre": 5124,
      "ablish": 5125,
      "Ġexpl": 5126,
      "astava": 5127,
      "ĠFund": 5128,
      "Ġbillions": 5129,
      "Ġtranscript": 5130,
      "Ġworkst": 5131,
      "Ġfocusing": 5132,
      "Ġcomputational": 5133,
      "comm": 5134,
      "Ġregul": 5135,
      "Ġpayment": 5136,
      "Wells": 5137,
      "Ġbecomes": 5138,
      "Ġfundament": 5139,
      "ĠAssociates": 5140,
      "Ġcrypto": 5141,
      "ĠOptane": 5142,
      "ĠGraves": 5143,
      "itude": 5144,
      "Ġcadence": 5145,
      "ĠSrivastava": 5146,
      "63": 5147,
      "Pod": 5148,
      "TC": 5149,
      "agine": 5150,
      "Ġtit": 5151,
      "invest": 5152,
      "Ġold": 5153,
      "Ġbox": 5154,
      "ico": 5155,
      "Ġhold": 5156,
      "ĠSil": 5157,
      "Ġname": 5158,
      "imes": 5159,
      "ĠDass": 5160,
      "ĠThill": 5161,
      "ĠGre": 5162,
      "Ġuseful": 5163,
      "ongr": 5164,
      "lied": 5165,
      "Ġword": 5166,
      "Ġworth": 5167,
      "ĠChinese": 5168,
      "Ġinvestor": 5169,
      "Ġcode": 5170,
      "Ġcomms": 5171,
      "Ġcommon": 5172,
      "ĠAmit": 5173,
      "avior": 5174,
      "phone": 5175,
      "Ġramps": 5176,
      "Ġsett": 5177,
      "Ġphenom": 5178,
      "Ġevolving": 5179,
      "Ġbehavior": 5180,
      "Ġabsolute": 5181,
      "Ġsummar": 5182,
      "Ġdecreased": 5183,
      "Microsoft": 5184,
      "month": 5185,
      "Ġimmers": 5186,
      "Ġhistorical": 5187,
      "Ġmilestones": 5188,
      "ĠToshiya": 5189,
      "ĠSandler": 5190,
      "Ġsubstantial": 5191,
      "Ġextraordinary": 5192,
      "Ġmacroeconomic": 5193,
      "Ġcrisis": 5194,
      "ĠSilver": 5195,
      "Ġphenomen": 5196,
      "67": 5197,
      "Cisco": 5198,
      "ham": 5199,
      "husi": 5200,
      "ivers": 5201,
      "pr": 5202,
      "atory": 5203,
      "Ġfill": 5204,
      "Ġmatch": 5205,
      "edham": 5206,
      "urally": 5207,
      "Ġreleased": 5208,
      "ĠSams": 5209,
      "level": 5210,
      "Ġsepar": 5211,
      "Ġmoved": 5212,
      "ĠEast": 5213,
      "ĠPacific": 5214,
      "acking": 5215,
      "ĠHol": 5216,
      "ormous": 5217,
      "ended": 5218,
      "Ġimpress": 5219,
      "Ġmag": 5220,
      "Ġplays": 5221,
      "Ġenormous": 5222,
      "Ġstrongest": 5223,
      "rought": 5224,
      "Ġaction": 5225,
      "avath": 5226,
      "olland": 5227,
      "Ġcompetitor": 5228,
      "Ġaccret": 5229,
      "Ġqualifications": 5230,
      "Ġpaying": 5231,
      "Ġdirection": 5232,
      "Ġslowdown": 5233,
      "Ġclarify": 5234,
      "Ġcampus": 5235,
      "Ġdisclosure": 5236,
      "Ġtransportation": 5237,
      "ĠSilverstein": 5238,
      "ĠSamsung": 5239,
      "Nancy": 5240,
      "Vijay": 5241,
      "field": 5242,
      "lit": 5243,
      "eries": 5244,
      "Ġbread": 5245,
      "Ġfig": 5246,
      "Ġpict": 5247,
      "Ġmission": 5248,
      "Ġselection": 5249,
      "olved": 5250,
      "ĠOppenheimer": 5251,
      "aced": 5252,
      "ĠNest": 5253,
      "ĠSoft": 5254,
      "ending": 5255,
      "ĠAnne": 5256,
      "ĠLive": 5257,
      "Ġspent": 5258,
      "Ġsplit": 5259,
      "Ġstrongly": 5260,
      "ĠVideo": 5261,
      "Ġtalent": 5262,
      "Ġtransp": 5263,
      "ĠStates": 5264,
      "Ġconserv": 5265,
      "Ġbenefited": 5266,
      "Ġamb": 5267,
      "Ġenthusi": 5268,
      "Ġdesigns": 5269,
      "Ġupdates": 5270,
      "Ġcontributed": 5271,
      "Ġreturns": 5272,
      "Ġqualitative": 5273,
      "Ġjoined": 5274,
      "Ġvisual": 5275,
      "Ġforecasting": 5276,
      "Ġelastic": 5277,
      "Ġinternal": 5278,
      "ĠPaul": 5279,
      "Ġadopted": 5280,
      "Ġnecessary": 5281,
      "Ġfootpr": 5282,
      "Ġroadmap": 5283,
      "chandani": 5284,
      "ĠKidron": 5285,
      "ĠDassen": 5286,
      "MC": 5287,
      "May": 5288,
      "by": 5289,
      "tick": 5290,
      "uations": 5291,
      "erd": 5292,
      "ites": 5293,
      "Ġfit": 5294,
      "ĠCit": 5295,
      "ĠMitch": 5296,
      "ĠMiller": 5297,
      "ĠDouglas": 5298,
      "Ġste": 5299,
      "Ġstab": 5300,
      "oost": 5301,
      "aming": 5302,
      "ĠBl": 5303,
      "ĠHsun": 5304,
      "ĠLaura": 5305,
      "tera": 5306,
      "cloud": 5307,
      "Ġsigns": 5308,
      "Ġspecial": 5309,
      "Ġdiscussing": 5310,
      "plish": 5311,
      "Ġsimpl": 5312,
      "ĠNext": 5313,
      "Ġexception": 5314,
      "Ġtravel": 5315,
      "raig": 5316,
      "ĠGeorge": 5317,
      "Ġlithography": 5318,
      "Ġhours": 5319,
      "Ġaggressive": 5320,
      "Ġsubscribers": 5321,
      "Ġphysical": 5322,
      "Ġappropriate": 5323,
      "Ġindividual": 5324,
      "Apple": 5325,
      "Ġrespectively": 5326,
      "ĠFunda": 5327,
      "ĠGreater": 5328,
      "300": 5329,
      "Blayne": 5330,
      "hp": 5331,
      "sh": 5332,
      "ux": 5333,
      "rey": 5334,
      "ength": 5335,
      "Ġbudg": 5336,
      "Ġbrought": 5337,
      "Ġhar": 5338,
      "ĠColin": 5339,
      "imo": 5340,
      "ĠDDR": 5341,
      "Ġdelay": 5342,
      "ĠBrent": 5343,
      "ĠThings": 5344,
      "ĠNav": 5345,
      "Ġuses": 5346,
      "Ġimagine": 5347,
      "eck": 5348,
      "ĠQLC": 5349,
      "ourth": 5350,
      "Ġsav": 5351,
      "Ġ400": 5352,
      "Ġactiv": 5353,
      "Ġcharg": 5354,
      "Ġassist": 5355,
      "ertainly": 5356,
      "Ġbrands": 5357,
      "ĠCompanies": 5358,
      "Ġtotaled": 5359,
      "Ġgotten": 5360,
      "Ġbenefiting": 5361,
      "Ġwait": 5362,
      "Ġinsight": 5363,
      "Ġhearing": 5364,
      "Ġrestrict": 5365,
      "Ġcontributing": 5366,
      "Ġpurchasing": 5367,
      "Ġvariability": 5368,
      "Ġsurve": 5369,
      "Ġempower": 5370,
      "Ġhopefully": 5371,
      "ummit": 5372,
      "Ġdistribution": 5373,
      "Ġconstraints": 5374,
      "Ġproblems": 5375,
      "Ġbuybacks": 5376,
      "Ġhistorically": 5377,
      "ĠDeshp": 5378,
      "Ġdepends": 5379,
      "Ġdemonstrated": 5380,
      "Ġlitho": 5381,
      "Ġchoose": 5382,
      "growing": 5383,
      "incipal": 5384,
      "Ġcapture": 5385,
      "Ġtouch": 5386,
      "Ġrestructuring": 5387,
      "Ġsurprised": 5388,
      "Ġbreadth": 5389,
      "Ġfootprint": 5390,
      "ĠDeshpande": 5391,
      "68": 5392,
      "Douglas": 5393,
      "Michael": 5394,
      "ole": 5395,
      "pass": 5396,
      "tes": 5397,
      "vol": 5398,
      "Ġtem": 5399,
      "Ġcamer": 5400,
      "Ġpilot": 5401,
      "Ġground": 5402,
      "Ġlo": 5403,
      "verse": 5404,
      "Ġelements": 5405,
      "ĠMer": 5406,
      "ĠMet": 5407,
      "Ġexit": 5408,
      "ĠInter": 5409,
      "otera": 5410,
      "ĠBh": 5411,
      "apt": 5412,
      "Ġsocial": 5413,
      "Ġ36": 5414,
      "Ġ39": 5415,
      "Ġ300": 5416,
      "Ġnewer": 5417,
      "Ġlooked": 5418,
      "ĠVijay": 5419,
      "wards": 5420,
      "anced": 5421,
      "Ġadditions": 5422,
      "ĠKarl": 5423,
      "Ġfinish": 5424,
      "Ġflows": 5425,
      "Ġoffice": 5426,
      "Ġprocesses": 5427,
      "Ġ96": 5428,
      "ĠProcess": 5429,
      "Ġaccord": 5430,
      "Ġextens": 5431,
      "Ġhighlights": 5432,
      "Ġshareholder": 5433,
      "Ġmeaningfully": 5434,
      "ĠUnit": 5435,
      "ĠMoerd": 5436,
      "Ġcontains": 5437,
      "ĠToshiro": 5438,
      "ĠPhil": 5439,
      "Ġaccomplish": 5440,
      "ĠCustomers": 5441,
      "ĠWorld": 5442,
      "Ġcharacterize": 5443,
      "Ġenjoy": 5444,
      "Ġdisplay": 5445,
      "Ġdatabase": 5446,
      "Maybe": 5447,
      "ĠFundamental": 5448,
      "ĠMoerdler": 5449,
      "66": 5450,
      "Joseph": 5451,
      "MI": 5452,
      "ged": 5453,
      "iber": 5454,
      "lies": 5455,
      "xico": 5456,
      "ze": 5457,
      "reced": 5458,
      "Ġfelt": 5459,
      "Ġmer": 5460,
      "Ġmusic": 5461,
      "room": 5462,
      "Ġglo": 5463,
      "Ġreiter": 5464,
      "Ġlump": 5465,
      "Ġlength": 5466,
      "ask": 5467,
      "ĠSales": 5468,
      "chain": 5469,
      "ĠDec": 5470,
      "ĠDRI": 5471,
      "Ġexcess": 5472,
      "ĠPiper": 5473,
      "ĠGerm": 5474,
      "ĠGiven": 5475,
      "ĠWeiss": 5476,
      "acceler": 5477,
      "uman": 5478,
      "Ġjump": 5479,
      "ĠLens": 5480,
      "Ġtech": 5481,
      "Ġspo": 5482,
      "agavath": 5483,
      "Ġfluct": 5484,
      "phy": 5485,
      "Ġamort": 5486,
      "Ġmidpoint": 5487,
      "Ġplayers": 5488,
      "Ġrequires": 5489,
      "Ġclients": 5490,
      "ĠiPads": 5491,
      "ĠMexico": 5492,
      "Ġqualification": 5493,
      "take": 5494,
      "Ġshowed": 5495,
      "ĠMehdi": 5496,
      "Ġuniqu": 5497,
      "Ġdepending": 5498,
      "Ġnecessarily": 5499,
      "Ġunpreced": 5500,
      "Ġcannot": 5501,
      "ĠSwitching": 5502,
      "Ġcompliance": 5503,
      "ĠSKUs": 5504,
      "Ġevalu": 5505,
      "ĠSoftware": 5506,
      "Ġsavings": 5507,
      "ĠBhagavath": 5508,
      "Ġunprecedented": 5509,
      "Custom": 5510,
      "Over": 5511,
      "board": 5512,
      "kow": 5513,
      "pers": 5514,
      "pany": 5515,
      "Ġz": 5516,
      "ony": 5517,
      "Ġinferencing": 5518,
      "ĠCamp": 5519,
      "early": 5520,
      "ĠSam": 5521,
      "ĠSATA": 5522,
      "quar": 5523,
      "ĠMc": 5524,
      "ĠMost": 5525,
      "Ġstory": 5526,
      "Ġstages": 5527,
      "ĠInotera": 5528,
      "ĠPre": 5529,
      "ĠOI": 5530,
      "ulate": 5531,
      "ĠWelcome": 5532,
      "Ġshape": 5533,
      "ĠHall": 5534,
      "ĠLLP": 5535,
      "Ġperfect": 5536,
      "ĠJen": 5537,
      "Ġprec": 5538,
      "ously": 5539,
      "Ġgreen": 5540,
      "resp": 5541,
      "itement": 5542,
      "ĠWhere": 5543,
      "ĠExchange": 5544,
      "Ġcontribute": 5545,
      "Ġcontributor": 5546,
      "Ġattribut": 5547,
      "Ġdifferentiation": 5548,
      "Ġestimates": 5549,
      "driven": 5550,
      "Ġvehicle": 5551,
      "ĠARPU": 5552,
      "Ġencourage": 5553,
      "chool": 5554,
      "Ġcrossover": 5555,
      "Ġsizable": 5556,
      "Ġraising": 5557,
      "ĠMoskow": 5558,
      "Ġsharing": 5559,
      "Ġpenetration": 5560,
      "Ġsimply": 5561,
      "Ġvendors": 5562,
      "Ġpicture": 5563,
      "Ġtransparen": 5564,
      "Ġglobe": 5565,
      "ĠDRIVE": 5566,
      "Last": 5567,
      "Laura": 5568,
      "Ġwind": 5569,
      "edic": 5570,
      "Ġgap": 5571,
      "ĠSM": 5572,
      "Ġelev": 5573,
      "illed": 5574,
      "ĠDu": 5575,
      "ĠEME": 5576,
      "ĠEcho": 5577,
      "ĠNo": 5578,
      "Ġjoint": 5579,
      "ĠHMI": 5580,
      "ĠLP": 5581,
      "Ġens": 5582,
      "Ġspread": 5583,
      "ĠVer": 5584,
      "Ġunified": 5585,
      "Ġlastly": 5586,
      "oods": 5587,
      "rick": 5588,
      "Ġchose": 5589,
      "ĠAltera": 5590,
      "Ġpract": 5591,
      "ĠClark": 5592,
      "Ġexcitement": 5593,
      "Ġinsert": 5594,
      "Ġcontributions": 5595,
      "Ġreferenced": 5596,
      "Ġestablish": 5597,
      "Ġscre": 5598,
      "Ġeasily": 5599,
      "ĠCommission": 5600,
      "ĠHealth": 5601,
      "Ġrendering": 5602,
      "powered": 5603,
      "Ġtariffs": 5604,
      "changed": 5605,
      "Ġcampaigns": 5606,
      "Ġblockchain": 5607,
      "Ġexplain": 5608,
      "Ġregulatory": 5609,
      "Ġmagn": 5610,
      "ĠCiti": 5611,
      "88": 5612,
      "BM": 5613,
      "Looking": 5614,
      "UDA": 5615,
      "aul": 5616,
      "half": 5617,
      "iver": 5618,
      "obs": 5619,
      "well": 5620,
      "yer": 5621,
      "Ġera": 5622,
      "Ġopp": 5623,
      "Ġobs": 5624,
      "ĠCUDA": 5625,
      "etime": 5626,
      "ĠSAP": 5627,
      "ĠTr": 5628,
      "Ġseat": 5629,
      "Ġconclus": 5630,
      "rific": 5631,
      "ĠGen": 5632,
      "Ġexpos": 5633,
      "Ġwasn": 5634,
      "ĠHas": 5635,
      "ĠLian": 5636,
      "Ġteens": 5637,
      "Ġ59": 5638,
      "licit": 5639,
      "Ġsigned": 5640,
      "Ġcomputation": 5641,
      "olutions": 5642,
      "ĠWhole": 5643,
      "ups": 5644,
      "Ġinstance": 5645,
      "Ġcarri": 5646,
      "ĠCont": 5647,
      "Ġtypical": 5648,
      "Ġconsidered": 5649,
      "Ġrolled": 5650,
      "ĠHarchandani": 5651,
      "Ġimmedi": 5652,
      "Ġlegacy": 5653,
      "Ġauthorization": 5654,
      "ĠAdditionally": 5655,
      "Ġrepeat": 5656,
      "Ġelasticity": 5657,
      "quarie": 5658,
      "ĠMoskowitz": 5659,
      "Ġensuring": 5660,
      "If": 5661,
      "Joe": 5662,
      "RT": 5663,
      "Shannon": 5664,
      "ew": 5665,
      "holland": 5666,
      "Ġtens": 5667,
      "Ġtied": 5668,
      "eral": 5669,
      "Ġokay": 5670,
      "Ġcult": 5671,
      "Ġboost": 5672,
      "anani": 5673,
      "Ġweighted": 5674,
      "ĠAut": 5675,
      "ĠIyer": 5676,
      "ĠCard": 5677,
      "ĠSummit": 5678,
      "ĠSolutions": 5679,
      "arting": 5680,
      "artment": 5681,
      "ĠMul": 5682,
      "ĠDel": 5683,
      "ĠDary": 5684,
      "ĠAndrew": 5685,
      "pper": 5686,
      "ĠFild": 5687,
      "ĠFiber": 5688,
      "Ġimplications": 5689,
      "Ġresili": 5690,
      "Ġoutlined": 5691,
      "Ġappear": 5692,
      "Ġspan": 5693,
      "Ġspot": 5694,
      "Ġhasn": 5695,
      "ĠSteve": 5696,
      "Ġcommerce": 5697,
      "Ġentertain": 5698,
      "Ġversion": 5699,
      "Ġsupported": 5700,
      "ibr": 5701,
      "Ġinflection": 5702,
      "Ġsometimes": 5703,
      "ĠHoldings": 5704,
      "Ġexamples": 5705,
      "Ġbalanced": 5706,
      "Ġgaining": 5707,
      "Ġreaching": 5708,
      "ĠNeedham": 5709,
      "Ġenabled": 5710,
      "Ġretailers": 5711,
      "Ġsustainability": 5712,
      "Ġgrad": 5713,
      "Ġencouraged": 5714,
      "Ġcommunication": 5715,
      "ĠCustomer": 5716,
      "Ġattractive": 5717,
      "Ġtrusted": 5718,
      "Ġdeceleration": 5719,
      "Alphabet": 5720,
      "Ġlaptops": 5721,
      "ĠFortune": 5722,
      "Ġsummarize": 5723,
      "Ġactivities": 5724,
      "Ġcharges": 5725,
      "ĠEMEA": 5726,
      "Ġexposure": 5727,
      "ĠLiani": 5728,
      "ĠMulholland": 5729,
      "ĠDaryanani": 5730,
      "ĠFildes": 5731,
      "Dynamics": 5732,
      "Romit": 5733,
      "demand": 5734,
      "gig": 5735,
      "lets": 5736,
      "uk": 5737,
      "uable": 5738,
      "Ġtw": 5739,
      "itiveness": 5740,
      "ently": 5741,
      "omin": 5742,
      "earning": 5743,
      "ĠTill": 5744,
      "Ġisn": 5745,
      "Ġmoves": 5746,
      "Ġgroc": 5747,
      "ada": 5748,
      "ĠBased": 5749,
      "ĠGo": 5750,
      "ĠGill": 5751,
      "Ġuptick": 5752,
      "Ġgoals": 5753,
      "ĠFarhan": 5754,
      "ĠFourth": 5755,
      "Ġproductive": 5756,
      "Ġadvanc": 5757,
      "Ġsuite": 5758,
      "ĠLike": 5759,
      "Ġmax": 5760,
      "irstead": 5761,
      "Ġseries": 5762,
      "Ġcalling": 5763,
      "Ġunchanged": 5764,
      "elling": 5765,
      "Ġ46": 5766,
      "ĠIttai": 5767,
      "Ġworkforce": 5768,
      "Ġdifferences": 5769,
      "Ġgenerating": 5770,
      "Ġstrengthen": 5771,
      "Ġassumption": 5772,
      "Ġcompete": 5773,
      "Ġcompetitiveness": 5774,
      "Ġindication": 5775,
      "encer": 5776,
      "Ġpositioning": 5777,
      "Ġspeech": 5778,
      "Ġdetailed": 5779,
      "Ġminim": 5780,
      "Ġsurpass": 5781,
      "ĠKeirstead": 5782,
      "Ġstructural": 5783,
      "Ġextended": 5784,
      "Ġdisru": 5785,
      "Ġtried": 5786,
      "ĠDoes": 5787,
      "ĠSpencer": 5788,
      "Ġconstrained": 5789,
      "Ġmeasured": 5790,
      "Ġpeak": 5791,
      "Ġeducation": 5792,
      "ĠLevel": 5793,
      "Ġsynerg": 5794,
      "Heather": 5795,
      "Ġconstruction": 5796,
      "commerce": 5797,
      "Ġaccretive": 5798,
      "Ġfigure": 5799,
      "ĠGermany": 5800,
      "Ġuniquely": 5801,
      "75": 5802,
      "Af": 5803,
      "Bob": 5804,
      "IC": 5805,
      "NVIDIA": 5806,
      "Nomura": 5807,
      "ding": 5808,
      "first": 5809,
      "rink": 5810,
      "Ġx": 5811,
      "ered": 5812,
      "Ġsk": 5813,
      "alys": 5814,
      "Ġfine": 5815,
      "rolog": 5816,
      "stone": 5817,
      "Ġhon": 5818,
      "used": 5819,
      "ĠTw": 5820,
      "ĠMCP": 5821,
      "Ġaspects": 5822,
      "Ġitem": 5823,
      "Ġproposition": 5824,
      "Ġund": 5825,
      "atever": 5826,
      "ĠPSG": 5827,
      "ĠBoth": 5828,
      "ĠBroad": 5829,
      "ĠNumber": 5830,
      "Ġadapt": 5831,
      "ĠCES": 5832,
      "Ġ42": 5833,
      "Ġ44": 5834,
      "Ġcommod": 5835,
      "osen": 5836,
      "Ġlaid": 5837,
      "Ġexpert": 5838,
      "Ġgenerations": 5839,
      "Ġramped": 5840,
      "Ġbets": 5841,
      "Ġexcuse": 5842,
      "Ġdeterm": 5843,
      "Ġdeeply": 5844,
      "Ġseasonally": 5845,
      "Ġeffects": 5846,
      "ĠCanada": 5847,
      "ĠSemi": 5848,
      "Ġgeography": 5849,
      "Ġreferred": 5850,
      "Ġinternally": 5851,
      "Ġformats": 5852,
      "Ġrepresenting": 5853,
      "Ġthoughtful": 5854,
      "ĠComputer": 5855,
      "ĠADAS": 5856,
      "Ġconversational": 5857,
      "Justin": 5858,
      "Ġdramatic": 5859,
      "Ġaccompany": 5860,
      "Ġcaution": 5861,
      "ĠAssociate": 5862,
      "ĠProductivity": 5863,
      "Ġrecommendation": 5864,
      "Ġdiversified": 5865,
      "ĠAirPod": 5866,
      "ĠFPGAs": 5867,
      "ĠGDP": 5868,
      "Ġterrific": 5869,
      "Ġleveraging": 5870,
      "Ġalgorithms": 5871,
      "investor": 5872,
      "ĠInterim": 5873,
      "ĠMcAf": 5874,
      "Ġelevated": 5875,
      "Ġmagnitude": 5876,
      "alysis": 5877,
      "rology": 5878,
      "ĠMcAfee": 5879,
      "73": 5880,
      "78": 5881,
      "Jim": 5882,
      "Pierre": 5883,
      "Ra": 5884,
      "Simona": 5885,
      "agh": 5886,
      "cade": 5887,
      "ducing": 5888,
      "loud": 5889,
      "uild": 5890,
      "ero": 5891,
      "Ġoption": 5892,
      "Ġface": 5893,
      "edia": 5894,
      "icustom": 5895,
      "Ġhiring": 5896,
      "ĠCarl": 5897,
      "ĠSac": 5898,
      "Ġelement": 5899,
      "chow": 5900,
      "ĠTS": 5901,
      "Ġwhatever": 5902,
      "Ġextern": 5903,
      "Ġmov": 5904,
      "Ġanalysis": 5905,
      "elf": 5906,
      "acc": 5907,
      "Ġshrink": 5908,
      "Ġexplicit": 5909,
      "ĠNX": 5910,
      "Ġcompelling": 5911,
      "ĠFoods": 5912,
      "Ġtracking": 5913,
      "onding": 5914,
      "Ġindependent": 5915,
      "Ġ49": 5916,
      "Ġinclus": 5917,
      "There": 5918,
      "ĠTeam": 5919,
      "ĠAlso": 5920,
      "ĠAdam": 5921,
      "Ġprud": 5922,
      "conagh": 5923,
      "ĠProv": 5924,
      "Ġengaging": 5925,
      "Ġvariable": 5926,
      "Ġkeeping": 5927,
      "Ġtargeted": 5928,
      "Ġrevolution": 5929,
      "Ġorganic": 5930,
      "Ġconsistently": 5931,
      "Ġthoughtfully": 5932,
      "ĠKevin": 5933,
      "Ġpublishers": 5934,
      "Ġextending": 5935,
      "Ġbuyers": 5936,
      "Ġcorresp": 5937,
      "premise": 5938,
      "Ġperformed": 5939,
      "Ġconcerns": 5940,
      "Ġaggressively": 5941,
      "ĠFPGA": 5942,
      "Kevin": 5943,
      "Ġwarehous": 5944,
      "Ġtitles": 5945,
      "Ġwords": 5946,
      "Ġimpressive": 5947,
      "ĠLenschow": 5948,
      "ĠAirPods": 5949,
      "ĠSacconagh": 5950,
      "ĠSacconaghi": 5951,
      "Book": 5952,
      "Can": 5953,
      "Jefferies": 5954,
      "Mitch": 5955,
      "Pro": 5956,
      "Two": 5957,
      "When": 5958,
      "eed": 5959,
      "front": 5960,
      "pere": 5961,
      "uly": 5962,
      "eren": 5963,
      "oni": 5964,
      "alle": 5965,
      "ism": 5966,
      "Ġmitig": 5967,
      "Ġmiss": 5968,
      "Ġnanometers": 5969,
      "Ġseam": 5970,
      "Ġselect": 5971,
      "ĠDep": 5972,
      "ĠRec": 5973,
      "ĠRomit": 5974,
      "Ġdefer": 5975,
      "adish": 5976,
      "sell": 5977,
      "antly": 5978,
      "Ġcomplic": 5979,
      "umer": 5980,
      "ferences": 5981,
      "Ġimplied": 5982,
      "Ġvide": 5983,
      "Ġoutp": 5984,
      "Ġ48": 5985,
      "agadish": 5986,
      "Ġeverywhere": 5987,
      "Ġcho": 5988,
      "Ġpointed": 5989,
      "aki": 5990,
      "Ġpartnering": 5991,
      "oining": 5992,
      "Ġslower": 5993,
      "Ġcreation": 5994,
      "Ġcredit": 5995,
      "Ġstrategically": 5996,
      "Ġvaluable": 5997,
      "Ġentry": 5998,
      "Ġchannels": 5999,
      "Ġperiods": 6000,
      "Ġevolution": 6001,
      "Ġtargeting": 6002,
      "Ġcommunities": 6003,
      "Ġemployee": 6004,
      "Ġrollout": 6005,
      "ĠStrong": 6006,
      "Ġwinning": 6007,
      "Ġrenewals": 6008,
      "Ġtougher": 6009,
      "Ġwrite": 6010,
      "Ġpatterns": 6011,
      "Ġtelephone": 6012,
      "Ġcongrats": 6013,
      "Ġmature": 6014,
      "Ġsemicustom": 6015,
      "What": 6016,
      "Ġschedule": 6017,
      "Ġfunctional": 6018,
      "ĠCaso": 6019,
      "ongratulations": 6020,
      "ĠBlack": 6021,
      "ĠMeraki": 6022,
      "ĠProcesses": 6023,
      "Ġmerch": 6024,
      "Ġgreenfield": 6025,
      "ĠVerily": 6026,
      "ĠTSMC": 6027,
      "Ġcorresponding": 6028,
      "Ġseamless": 6029,
      "Ġcomplicated": 6030,
      "BMO": 6031,
      "ER": 6032,
      "Eric": 6033,
      "Fi": 6034,
      "Flex": 6035,
      "GR": 6036,
      "James": 6037,
      "MM": 6038,
      "WAN": 6039,
      "ax": 6040,
      "aving": 6041,
      "auc": 6042,
      "bor": 6043,
      "der": 6044,
      "gree": 6045,
      "por": 6046,
      "uho": 6047,
      "Ġtable": 6048,
      "Ġcir": 6049,
      "anch": 6050,
      "Ġdrop": 6051,
      "Ġlab": 6052,
      "Ġnav": 6053,
      "igate": 6054,
      "idge": 6055,
      "ationally": 6056,
      "Ġaren": 6057,
      "ĠWi": 6058,
      "Ġmot": 6059,
      "otain": 6060,
      "ĠBP": 6061,
      "ĠBe": 6062,
      "ĠBen": 6063,
      "perform": 6064,
      "iled": 6065,
      "ulated": 6066,
      "alled": 6067,
      "Ġexpir": 6068,
      "Ġexplo": 6069,
      "ĠNot": 6070,
      "Ġcomps": 6071,
      "ĠFauc": 6072,
      "ĠAnn": 6073,
      "Ġtruly": 6074,
      "Ġworse": 6075,
      "indra": 6076,
      "Ġlives": 6077,
      "izuho": 6078,
      "Ġanywhere": 6079,
      "Ġcoverage": 6080,
      "Ġgoods": 6081,
      "efined": 6082,
      "Third": 6083,
      "Ġ62": 6084,
      "ĠAppDynamics": 6085,
      "ĠAmpere": 6086,
      "Ġthemselves": 6087,
      "Ġbuilds": 6088,
      "Ġstrategies": 6089,
      "conference": 6090,
      "Ġremained": 6091,
      "Ġviews": 6092,
      "ĠManney": 6093,
      "Ġinfotain": 6094,
      "Ġmovement": 6095,
      "Ġplayed": 6096,
      "Ġgained": 6097,
      "iconductor": 6098,
      "amsi": 6099,
      "Ġmeetings": 6100,
      "Ġsubse": 6101,
      "ĠEngine": 6102,
      "rnest": 6103,
      "Ġadjusted": 6104,
      "Ġconversation": 6105,
      "Ġtends": 6106,
      "Ġexclude": 6107,
      "Ġflexible": 6108,
      "Ġ451": 6109,
      "Ġmedia": 6110,
      "Ġdisclos": 6111,
      "yperFlex": 6112,
      "Ġpromot": 6113,
      "ASML": 6114,
      "Ġaudience": 6115,
      "Ġchoosing": 6116,
      "Ġsizes": 6117,
      "Ġproperties": 6118,
      "Ġcongratulations": 6119,
      "Ġsampling": 6120,
      "Ġdescribed": 6121,
      "ĠCatalyst": 6122,
      "Ġbillings": 6123,
      "ĠTerry": 6124,
      "Ġconservative": 6125,
      "Ġstabil": 6126,
      "Ġsurvey": 6127,
      "Ġtempor": 6128,
      "Ġinsertion": 6129,
      "Ġopposed": 6130,
      "Ġculture": 6131,
      "Ġmaxim": 6132,
      "ĠNXE": 6133,
      "Ġvideos": 6134,
      "ĠFaucette": 6135,
      "Ġinfotainment": 6136,
      "%;": 6137,
      "Aaron": 6138,
      "CS": 6139,
      "Is": 6140,
      "Mill": 6141,
      "OB": 6142,
      "Paul": 6143,
      "Roger": 6144,
      "iw": 6145,
      "ient": 6146,
      "jv": 6147,
      "lu": 6148,
      "specific": 6149,
      "inear": 6150,
      "inux": 6151,
      "orning": 6152,
      "esh": 6153,
      "ingly": 6154,
      "Ġdur": 6155,
      "Ġgl": 6156,
      "Ġlinear": 6157,
      "ĠCar": 6158,
      "ĠCort": 6159,
      "ĠSet": 6160,
      "ĠSince": 6161,
      "ĠTwo": 6162,
      "Ġforth": 6163,
      "ĠMedia": 6164,
      "Ġstead": 6165,
      "ĠRod": 6166,
      "ĠWins": 6167,
      "rive": 6168,
      "ĠPat": 6169,
      "ĠGreat": 6170,
      "ĠGrow": 6171,
      "ĠNSG": 6172,
      "Ġintu": 6173,
      "ĠHyperFlex": 6174,
      "Ġaccept": 6175,
      "ĠLinux": 6176,
      "ored": 6177,
      "ĠUK": 6178,
      "ello": 6179,
      "Ġactively": 6180,
      "ailing": 6181,
      "ĠAmong": 6182,
      "Ġknown": 6183,
      "ĠExclud": 6184,
      "Ġleaders": 6185,
      "Ġsegmentation": 6186,
      "Ġdigestion": 6187,
      "ibal": 6188,
      "emsen": 6189,
      "Ġconfig": 6190,
      "Ġtaxes": 6191,
      "ĠPrincipal": 6192,
      "Ġwave": 6193,
      "ĠMacMill": 6194,
      "Ġprepar": 6195,
      "Ġmetrology": 6196,
      "Ġaddressing": 6197,
      "Ġvirus": 6198,
      "Ġlocation": 6199,
      "Ġartic": 6200,
      "Ġinitiative": 6201,
      "Ġcompares": 6202,
      "Ġthreats": 6203,
      "Ġconcerned": 6204,
      "ĠEveryone": 6205,
      "onald": 6206,
      "Ġaligned": 6207,
      "ĠSiemsen": 6208,
      "Ġcannibal": 6209,
      "Ġmoderate": 6210,
      "Ġproperty": 6211,
      "Ġrobotics": 6212,
      "ĠGDDR": 6213,
      "Ġidentify": 6214,
      "Ġdomest": 6215,
      "Ġconvertible": 6216,
      "Ġranges": 6217,
      "Ġreiterate": 6218,
      "Ġspoke": 6219,
      "Overall": 6220,
      "Ġconclusion": 6221,
      "Ġentertainment": 6222,
      "Ġsynergies": 6223,
      "Ġunders": 6224,
      "Ġexpertise": 6225,
      "jvindra": 6226,
      "ĠCortana": 6227,
      "ĠMacMillan": 6228,
      "08": 6229,
      "79": 6230,
      "Ernest": 6231,
      "Tr": 6232,
      "].": 6233,
      "eep": 6234,
      "gen": 6235,
      "hod": 6236,
      "net": 6237,
      "Ġsolve": 6238,
      "Ġcatch": 6239,
      "Ġfre": 6240,
      "Ġfirm": 6241,
      "ederal": 6242,
      "ĠAust": 6243,
      "Ġhol": 6244,
      "Ġreb": 6245,
      "ĠCCG": 6246,
      "ett": 6247,
      "ĠSBC": 6248,
      "Ġforce": 6249,
      "thy": 6250,
      "Ġqueries": 6251,
      "ided": 6252,
      "ĠDid": 6253,
      "ĠDemand": 6254,
      "ĠWas": 6255,
      "ĠPol": 6256,
      "ĠPeople": 6257,
      "ilo": 6258,
      "ĠLooking": 6259,
      "lip": 6260,
      "ĠJon": 6261,
      "ĠVeg": 6262,
      "oung": 6263,
      "Ġbund": 6264,
      "ĠKaty": 6265,
      "Ġcouldn": 6266,
      "ago": 6267,
      "Ġsignal": 6268,
      "Ġfinancing": 6269,
      "ĠAmbrish": 6270,
      "Ġchoice": 6271,
      "Ġdiscover": 6272,
      "Ġdelivers": 6273,
      "Ġaccelerator": 6274,
      "Ġvalid": 6275,
      "azil": 6276,
      "Ġreturning": 6277,
      "Ġembr": 6278,
      "Ġspecifics": 6279,
      "ĠClearly": 6280,
      "itchard": 6281,
      "Ġstanding": 6282,
      "ĠPritchard": 6283,
      "Ġupdated": 6284,
      "Ġintegrate": 6285,
      "Ġconnectivity": 6286,
      "Ġmethod": 6287,
      "attle": 6288,
      "Ġparticipate": 6289,
      "lake": 6290,
      "Ġadjustment": 6291,
      "Ġconversion": 6292,
      "Ġdraw": 6293,
      "Ġslowing": 6294,
      "Ġslowed": 6295,
      "Ġclarity": 6296,
      "Ġenhanced": 6297,
      "premises": 6298,
      "Ġreconciliations": 6299,
      "ĠRakesh": 6300,
      "Ġmigration": 6301,
      "ĠBrazil": 6302,
      "Ġpeers": 6303,
      "ĠSiri": 6304,
      "ĠRedstone": 6305,
      "Ġreinvent": 6306,
      "Ġmicro": 6307,
      "Ġtablet": 6308,
      "Ġgigabytes": 6309,
      "ĠRaimo": 6310,
      "Ġfundamentally": 6311,
      "Ġskill": 6312,
      "Ġhonest": 6313,
      "Ġcommodity": 6314,
      "ĠWinslow": 6315,
      "ĠExcluding": 6316,
      "71": 6317,
      "72": 6318,
      "Cloud": 6319,
      "DRAM": 6320,
      "Dave": 6321,
      "Ge": 6322,
      "One": 6323,
      "Total": 6324,
      "Toshi": 6325,
      "aut": 6326,
      "aight": 6327,
      "den": 6328,
      "defined": 6329,
      "jee": 6330,
      "Ġ#": 6331,
      "ination": 6332,
      "Ġaware": 6333,
      "Ġaug": 6334,
      "arch": 6335,
      "esman": 6336,
      "Ġbak": 6337,
      "Ġbunch": 6338,
      "Ġdedic": 6339,
      "ĠIC": 6340,
      "ĠIBM": 6341,
      "Ġreact": 6342,
      "Ġelect": 6343,
      "quare": 6344,
      "imate": 6345,
      "Ġexiting": 6346,
      "ĠPX": 6347,
      "ilies": 6348,
      "ĠGame": 6349,
      "ĠLat": 6350,
      "ĠLook": 6351,
      "Ġstraight": 6352,
      "Ġsport": 6353,
      "ĠVi": 6354,
      "ĠChatter": 6355,
      "Ġ43": 6356,
      "ĠKore": 6357,
      "Ġ57": 6358,
      "Ġflash": 6359,
      "Ġmixed": 6360,
      "ĠExpects": 6361,
      "Ġdeliveries": 6362,
      "Ġarg": 6363,
      "Ġcreates": 6364,
      "ĠProgram": 6365,
      "digits": 6366,
      "Ġoffsetting": 6367,
      "atched": 6368,
      "Ġpurchased": 6369,
      "Ġqualify": 6370,
      "Ġcentral": 6371,
      "Ġoptimized": 6372,
      "Ġmainly": 6373,
      "Ġformat": 6374,
      "Ġafford": 6375,
      "Ġlocations": 6376,
      "Ġlatency": 6377,
      "Ġfamilies": 6378,
      "aniel": 6379,
      "Ġoriginally": 6380,
      "Ġdemonstrate": 6381,
      "Ġmodestly": 6382,
      "ĠMosesman": 6383,
      "Ġanalysts": 6384,
      "Ġtablets": 6385,
      "Ġstudents": 6386,
      "Ġcards": 6387,
      "ĠEdge": 6388,
      "Ġgigabyte": 6389,
      "ĠMurphy": 6390,
      "ĠConsumer": 6391,
      "Ġworkstations": 6392,
      "Ġload": 6393,
      "Ġprudent": 6394,
      "Ġmerchants": 6395,
      "Ġaugment": 6396,
      "Ġbaked": 6397,
      "ĠChatterjee": 6398,
      "ĠMosesmann": 6399,
      "400": 6400,
      "76": 6401,
      "85": 6402,
      "800": 6403,
      "JC": 6404,
      "JU": 6405,
      "JPMorgan": 6406,
      "Nathanson": 6407,
      "Ph": 6408,
      "Re": 6409,
      "Young": 6410,
      "aks": 6411,
      "bl": 6412,
      "cape": 6413,
      "date": 6414,
      "Ġcopy": 6415,
      "alian": 6416,
      "ised": 6417,
      "Ġmorning": 6418,
      "Ġoften": 6419,
      "stream": 6420,
      "ĠAT": 6421,
      "Ġgraph": 6422,
      "asure": 6423,
      "ĠCA": 6424,
      "ĠSank": 6425,
      "utral": 6426,
      "ĠTime": 6427,
      "Ġbeat": 6428,
      "ĠMatthew": 6429,
      "Ġcomb": 6430,
      "ĠEMS": 6431,
      "Ġ150": 6432,
      "Ġjobs": 6433,
      "Ġimage": 6434,
      "ends": 6435,
      "Ġimply": 6436,
      "ĠLith": 6437,
      "rency": 6438,
      "ryn": 6439,
      "Ġbecame": 6440,
      "Ġconsist": 6441,
      "ĠASC": 6442,
      "ĠTele": 6443,
      "Ġflag": 6444,
      "phas": 6445,
      "ĠAPJC": 6446,
      "Ġconstantly": 6447,
      "Ġadvertiser": 6448,
      "Ġcapitalize": 6449,
      "ĠMarketing": 6450,
      "ĠISV": 6451,
      "ĠLynn": 6452,
      "athryn": 6453,
      "ĠMacquarie": 6454,
      "Ġflatt": 6455,
      "Ġachieving": 6456,
      "Ġoptimizing": 6457,
      "Ġmanufactur": 6458,
      "Ġparticipants": 6459,
      "Ittai": 6460,
      "raft": 6461,
      "Ġrepurchased": 6462,
      "3400": 6463,
      "Ġdrag": 6464,
      "Ġannualized": 6465,
      "Ġreviews": 6466,
      "Ġpredomin": 6467,
      "forward": 6468,
      "ĠMohan": 6469,
      "Ġmedical": 6470,
      "ĠDespite": 6471,
      "Ġrenewal": 6472,
      "Ġcomplexity": 6473,
      "Ġaudio": 6474,
      "Ġricher": 6475,
      "Advanced": 6476,
      "Ġfueled": 6477,
      "ĠMurthy": 6478,
      "Ġshifting": 6479,
      "Ġphenomenal": 6480,
      "Ġbudget": 6481,
      "Ġfluctuations": 6482,
      "Ġamortization": 6483,
      "Ġzero": 6484,
      "Ġwarehouses": 6485,
      "Ġdomestic": 6486,
      "ettNathanson": 6487,
      "George": 6488,
      "Toshiya": 6489,
      "Phil": 6490,
      "ĠSankar": 6491,
      ".-": 6492,
      "77": 6493,
      "Care": 6494,
      "Clement": 6495,
      "IO": 6496,
      "Matthew": 6497,
      "Skip": 6498,
      "UARY": 6499,
      "aily": 6500,
      "hir": 6501,
      "matched": 6502,
      "ps": 6503,
      "uber": 6504,
      "Ġair": 6505,
      "Ġthin": 6506,
      "Ġcuts": 6507,
      "Ġbear": 6508,
      "Ġfle": 6509,
      "Ġfederal": 6510,
      "Ġduty": 6511,
      "Ġdaily": 6512,
      "Ġhor": 6513,
      "Ġreform": 6514,
      "Ġland": 6515,
      "ĠSud": 6516,
      "ĠSky": 6517,
      "ĠSites": 6518,
      "thony": 6519,
      "ĠDell": 6520,
      "ĠDav": 6521,
      "Ġstacks": 6522,
      "ĠRO": 6523,
      "ĠRuss": 6524,
      "pply": 6525,
      "venues": 6526,
      "ĠEES": 6527,
      "ĠOut": 6528,
      "outs": 6529,
      "Ġshut": 6530,
      "Ġusually": 6531,
      "ĠDiClement": 6532,
      "Ġincorpor": 6533,
      "ĠFree": 6534,
      "Ġreson": 6535,
      "Ġnotic": 6536,
      "Ġmarketers": 6537,
      "Ġleft": 6538,
      "Ġunmatched": 6539,
      "Ġanyone": 6540,
      "ĠKva": 6541,
      "itten": 6542,
      "Ġmodules": 6543,
      "ĠDeYoung": 6544,
      "Ġdifferently": 6545,
      "ĠExp": 6546,
      "Ġobvious": 6547,
      "ĠAppleCare": 6548,
      "Ġknowledge": 6549,
      "calers": 6550,
      "Ġbench": 6551,
      "Ġtrending": 6552,
      "Ġremainder": 6553,
      "Ġturns": 6554,
      "chitecture": 6555,
      "pled": 6556,
      "Ġinflu": 6557,
      "erra": 6558,
      "Ġdiverse": 6559,
      "Ġheart": 6560,
      "Ġowners": 6561,
      "ĠMacBook": 6562,
      "Ġqualified": 6563,
      "Steve": 6564,
      "Stephen": 6565,
      "Ġaccounted": 6566,
      "Ġunivers": 6567,
      "Ġadjusting": 6568,
      "atterning": 6569,
      "Ġbehalf": 6570,
      "Ġsecured": 6571,
      "Ġmonetize": 6572,
      "Ġsustained": 6573,
      "Ġrolling": 6574,
      "Ġfacility": 6575,
      "Ġcontroll": 6576,
      "Ġvirtualization": 6577,
      "Ġsectors": 6578,
      "Ġcontained": 6579,
      "Ġprotection": 6580,
      "ĠSandeep": 6581,
      "iterally": 6582,
      "Ġpickup": 6583,
      "Ġengagements": 6584,
      "ĠTax": 6585,
      "ĠWalter": 6586,
      "Ġscient": 6587,
      "Ġshifts": 6588,
      "Ġsupercomputing": 6589,
      "ckets": 6590,
      "Ġimmersion": 6591,
      "Ġrestrictions": 6592,
      "ĠMetuk": 6593,
      "ĠContin": 6594,
      "Ġtwice": 6595,
      "ĠProvider": 6596,
      "Ġchoices": 6597,
      "Ġintuitive": 6598,
      "ĠJonas": 6599,
      "ĠCAGR": 6600,
      "ĠSudhir": 6601,
      "ĠDavis": 6602,
      "ĠRussia": 6603,
      "ĠEESC": 6604,
      "ĠDiClemente": 6605,
      "ĠKvaal": 6606,
      "ĠMetuku": 6607,
      ".)": 6608,
      "Brent": 6609,
      "Ellen": 6610,
      "Gross": 6611,
      "Ste": 6612,
      "co": 6613,
      "eel": 6614,
      "gment": 6615,
      "gency": 6616,
      "home": 6617,
      "mail": 6618,
      "mission": 6619,
      "ser": 6620,
      "van": 6621,
      "inct": 6622,
      "Ġsquare": 6623,
      "aris": 6624,
      "esla": 6625,
      "ouble": 6626,
      "Ġinnings": 6627,
      "Ġbar": 6628,
      "aney": 6629,
      "Ġple": 6630,
      "Ġmask": 6631,
      "enture": 6632,
      "llish": 6633,
      "Ġhuman": 6634,
      "Ġretain": 6635,
      "Ġlands": 6636,
      "Ġliterally": 6637,
      "asks": 6638,
      "ĠCraig": 6639,
      "ĠTesla": 6640,
      "ĠMike": 6641,
      "idering": 6642,
      "ithya": 6643,
      "ĠDoug": 6644,
      "Ġexclus": 6645,
      "Ġdegree": 6646,
      "ĠBel": 6647,
      "ĠGoing": 6648,
      "ĠGTC": 6649,
      "ĠNathanson": 6650,
      "Ġwilling": 6651,
      "Ġintc": 6652,
      "ĠHad": 6653,
      "Ġimaging": 6654,
      "unTr": 6655,
      "loc": 6656,
      "Ġvs": 6657,
      "ĠLeop": 6658,
      "ĠJeff": 6659,
      "Ġapply": 6660,
      "Ġapplying": 6661,
      "Ġleases": 6662,
      "Ġleave": 6663,
      "izon": 6664,
      "Ġrecover": 6665,
      "Ġindeed": 6666,
      "Ġbullish": 6667,
      "Ġremark": 6668,
      "Andrew": 6669,
      "Ġcheck": 6670,
      "Ġcomputers": 6671,
      "Ġrow": 6672,
      "Ġbelief": 6673,
      "Ġ9000": 6674,
      "Ġprogressing": 6675,
      "Ġregulations": 6676,
      "ĠAdo": 6677,
      "Ġemphas": 6678,
      "Ġacquired": 6679,
      "Ġoptics": 6680,
      "Ġintegrating": 6681,
      "ĠWithin": 6682,
      "Ġnormalize": 6683,
      "Ġmainten": 6684,
      "Ġsurge": 6685,
      "ĠActive": 6686,
      "Ġeconomics": 6687,
      "Ġhands": 6688,
      "Ġmiles": 6689,
      "Ġtechni": 6690,
      "Ġframeworks": 6691,
      "ĠTaiw": 6692,
      "Ġsemiconductor": 6693,
      "ĠFrance": 6694,
      "While": 6695,
      "Ġadjacencies": 6696,
      "ĠTerence": 6697,
      "Ġsupercomputer": 6698,
      "ĠWebEx": 6699,
      "ĠNavin": 6700,
      "volume": 6701,
      "ĠDelaney": 6702,
      "ĠGDPR": 6703,
      "Mitchell": 6704,
      "Ġfunctionality": 6705,
      "Ġnavigate": 6706,
      "Ġtemporary": 6707,
      "Ġskills": 6708,
      "ĠKorea": 6709,
      "Ġflattish": 6710,
      "Ġlandscape": 6711,
      "unTrust": 6712,
      "ĠLeopold": 6713,
      "Ġmaintenance": 6714,
      "ĠTaiwan": 6715,
      "95": 6716,
      "LY": 6717,
      "Rod": 6718,
      "SS": 6719,
      "af": 6720,
      "ger": 6721,
      "irect": 6722,
      "polog": 6723,
      "real": 6724,
      "enov": 6725,
      "arant": 6726,
      "ork": 6727,
      "Ġfol": 6728,
      "stood": 6729,
      "icking": 6730,
      "ĠIaaS": 6731,
      "Ġhed": 6732,
      "Ġhouse": 6733,
      "Ġrele": 6734,
      "Ġreuse": 6735,
      "ĠCertainly": 6736,
      "ĠSing": 6737,
      "ĠSkip": 6738,
      "Ġnative": 6739,
      "Ġonetime": 6740,
      "Ġseats": 6741,
      "iment": 6742,
      "ĠMal": 6743,
      "ĠMizuho": 6744,
      "ĠDalian": 6745,
      "Ġprop": 6746,
      "Ġprovision": 6747,
      "ĠPer": 6748,
      "ĠGaming": 6749,
      "Ġshap": 6750,
      "ĠHo": 6751,
      "Ġvary": 6752,
      "Ġvibr": 6753,
      "ĠLenov": 6754,
      "Ġsomebody": 6755,
      "ĠJaw": 6756,
      "ĠYork": 6757,
      "Ġclouds": 6758,
      "ĠKP": 6759,
      "Ġ58": 6760,
      "rishn": 6761,
      "APRI": 6762,
      "ĠSuper": 6763,
      "Ġfinance": 6764,
      "Ġ66": 6765,
      "Ġcharge": 6766,
      "Ġmode": 6767,
      "Ġsupplier": 6768,
      "venth": 6769,
      "Ġfinancials": 6770,
      "Ġleads": 6771,
      "Ġmobility": 6772,
      "Ġstrengthened": 6773,
      "Ġsupports": 6774,
      "Ġrising": 6775,
      "Ġamounts": 6776,
      "Ġmodeling": 6777,
      "Ġinstructions": 6778,
      "Ġinstances": 6779,
      "Ġdecided": 6780,
      "Ġtransitioning": 6781,
      "ĠPartner": 6782,
      "Ġphilo": 6783,
      "Ġautomate": 6784,
      "ĠFinally": 6785,
      "Ġentirely": 6786,
      "Ġrequest": 6787,
      "Ġ125": 6788,
      "ĠSee": 6789,
      "ĠMacs": 6790,
      "arlaz": 6791,
      "Ġfeaturing": 6792,
      "Amazon": 6793,
      "Ambrish": 6794,
      "Ġshortly": 6795,
      "Ġexcept": 6796,
      "ĠArchitecture": 6797,
      "Ġpresence": 6798,
      "Ġaccessible": 6799,
      "Ġswitches": 6800,
      "rued": 6801,
      "Ġlicense": 6802,
      "Ġquantum": 6803,
      "Ġtriple": 6804,
      "ĠARM": 6805,
      "Ġcorrectly": 6806,
      "aharlaz": 6807,
      "ports": 6808,
      "Ġcommunications": 6809,
      "Ġefficiently": 6810,
      "Ġwritten": 6811,
      "Ġdatac": 6812,
      "ĠProducts": 6813,
      "Ġsubstantially": 6814,
      "Ġdiscipline": 6815,
      "Ġidentity": 6816,
      "Ġscience": 6817,
      "Ġmigrate": 6818,
      "ĠChromebook": 6819,
      "Ġfloor": 6820,
      "Ġvisualization": 6821,
      "Ġlumpy": 6822,
      "ĠCampus": 6823,
      "Ġappears": 6824,
      "osenbl": 6825,
      "Ġlabs": 6826,
      "Ġsteady": 6827,
      "Ġconfigur": 6828,
      "ĠAustral": 6829,
      "ĠVega": 6830,
      "Ġcombine": 6831,
      "Ġconsistency": 6832,
      "Ġfolks": 6833,
      "ĠLenovo": 6834,
      "ĠJawaharlaz": 6835,
      "APRIL": 6836,
      "Ġphiloso": 6837,
      "osenblatt": 6838,
      "05": 6839,
      "150": 6840,
      "BU": 6841,
      "Darin": 6842,
      "En": 6843,
      "Karl": 6844,
      "My": 6845,
      "Some": 6846,
      "drop": 6847,
      "gun": 6848,
      "rilled": 6849,
      "Ġwat": 6850,
      "aray": 6851,
      "rocess": 6852,
      "Ġweigh": 6853,
      "Ġgen": 6854,
      "ĠID": 6855,
      "Ġhur": 6856,
      "Ġlift": 6857,
      "ĠSan": 6858,
      "ĠSch": 6859,
      "Ġonto": 6860,
      "Ġbegun": 6861,
      "Ġseventh": 6862,
      "ĠMin": 6863,
      "ĠMix": 6864,
      "Ġstre": 6865,
      "Ġproduce": 6866,
      "ĠWould": 6867,
      "olves": 6868,
      "adro": 6869,
      "ĠPass": 6870,
      "ĠBook": 6871,
      "Ġcomplement": 6872,
      "Ġincent": 6873,
      "ĠHans": 6874,
      "Ġimages": 6875,
      "ĠFab": 6876,
      "unk": 6877,
      "Ġadm": 6878,
      "Ġimplies": 6879,
      "Ġoverview": 6880,
      "Ġventure": 6881,
      "ĠLong": 6882,
      "Ġclick": 6883,
      "Ġ2014": 6884,
      "izes": 6885,
      "Ġprem": 6886,
      "Ġpreference": 6887,
      "ĠVe": 6888,
      "Ġconsidering": 6889,
      "Ġbackdrop": 6890,
      "Ġ68": 6891,
      "Ġundertake": 6892,
      "ffice": 6893,
      "Ġentering": 6894,
      "Ġpositions": 6895,
      "ventory": 6896,
      "Ġexperiencing": 6897,
      "Ġ95": 6898,
      "Ġprogression": 6899,
      "Ġregular": 6900,
      "Ġcompeting": 6901,
      "Ġfeeling": 6902,
      "Ġcommented": 6903,
      "Ġruns": 6904,
      "Ġheading": 6905,
      "Ġequation": 6906,
      "Ġcalc": 6907,
      "Ġnormally": 6908,
      "Ġeventually": 6909,
      "Ġownership": 6910,
      "Ġinitially": 6911,
      "Ġoptimization": 6912,
      "Ġmainstream": 6913,
      "Ġapproaches": 6914,
      "ĠQuadro": 6915,
      "408": 6916,
      "ĠIoTG": 6917,
      "Ġstructurally": 6918,
      "ĠNewman": 6919,
      "Ġconsiderations": 6920,
      "Ġlicenses": 6921,
      "margin": 6922,
      "Ġstaying": 6923,
      "Ġlosses": 6924,
      "ĠNetwork": 6925,
      "Ġwonderful": 6926,
      "ĠSmart": 6927,
      "ĠSteven": 6928,
      "Ġlimit": 6929,
      "Ġpushing": 6930,
      "Ġresearchers": 6931,
      "Ġteleconference": 6932,
      "ĠTensorRT": 6933,
      "Ġassessing": 6934,
      "Ġmaintaining": 6935,
      "Ġsharp": 6936,
      "Ġpackage": 6937,
      "Ġtailwinds": 6938,
      "Ġcleanroom": 6939,
      "Ġadjacent": 6940,
      "ĠChrome": 6941,
      "Ġmessaging": 6942,
      "iversary": 6943,
      "ĠEastern": 6944,
      "ĠHolistic": 6945,
      "Ġharbor": 6946,
      "ĠSMB": 6947,
      "ĠDuo": 6948,
      "Ġadvances": 6949,
      "Ġexternal": 6950,
      "accord": 6951,
      "ĠPolaris": 6952,
      "Ġaugmented": 6953,
      "JULY": 6954,
      "ĠSkylake": 6955,
      "ĠROI": 6956,
      "ĠOutlook": 6957,
      "Ġnoticed": 6958,
      "Steven": 6959,
      ").": 6960,
      "600": 6961,
      "89": 6962,
      "An": 6963,
      "Colin": 6964,
      "Hello": 6965,
      "Katy": 6966,
      "MW": 6967,
      "Raymond": 6968,
      "Sam": 6969,
      "Sande": 6970,
      "Tal": 6971,
      "Wel": 6972,
      "ban": 6973,
      "fl": 6974,
      "pital": 6975,
      "Ġton": 6976,
      "Ġapolog": 6977,
      "onav": 6978,
      "Ġce": 6979,
      "itend": 6980,
      "Ġbatter": 6981,
      "anular": 6982,
      "alty": 6983,
      "Ġtold": 6984,
      "Ġpell": 6985,
      "Ġpiv": 6986,
      "store": 6987,
      "Ġgeop": 6988,
      "uri": 6989,
      "Ġhitting": 6990,
      "ĠCot": 6991,
      "ĠCIO": 6992,
      "usual": 6993,
      "imens": 6994,
      "ĠML": 6995,
      "Ġquery": 6996,
      "ayments": 6997,
      "idth": 6998,
      "ĠDarin": 6999,
      "Ġstat": 7000,
      "Ġpros": 7001,
      "amm": 7002,
      "irus": 7003,
      "Ġ250": 7004,
      "ĠEC": 7005,
      "oti": 7006,
      "ĠBMW": 7007,
      "Ġrat": 7008,
      "Ġupfront": 7009,
      "Ġintense": 7010,
      "Ġtrillion": 7011,
      "ĠJitend": 7012,
      "Ġmeant": 7013,
      "ieves": 7014,
      "ounced": 7015,
      "Ġanybody": 7016,
      "Ġtransmission": 7017,
      "Ġ55": 7018,
      "agers": 7019,
      "Ġ600": 7020,
      "ocused": 7021,
      "ĠApplications": 7022,
      "ashion": 7023,
      "Ġmodems": 7024,
      "Ġfactories": 7025,
      "ĠDevelo": 7026,
      "Ġasset": 7027,
      "Ġlearned": 7028,
      "Ġmanagers": 7029,
      "neath": 7030,
      "ucks": 7031,
      "ATIC": 7032,
      "Ġrise": 7033,
      "ĠAPAC": 7034,
      "connect": 7035,
      "Ġpersistent": 7036,
      "Ġinstitut": 7037,
      "Ġopened": 7038,
      "Ġsimulation": 7039,
      "ĠUSA": 7040,
      "Ġsetting": 7041,
      "ĠSegment": 7042,
      "ĠTHATIC": 7043,
      "Ġprepare": 7044,
      "Ġconnection": 7045,
      "Ġapproaching": 7046,
      "quee": 7047,
      "Ġsurprise": 7048,
      "Ġpublicly": 7049,
      "Ġanalyze": 7050,
      "Ġpossibly": 7051,
      "Ġelabor": 7052,
      "Ġlisteners": 7053,
      "Ġbreake": 7054,
      "ĠNews": 7055,
      "ĠQuarterly": 7056,
      "Ġextends": 7057,
      "ĠPaaS": 7058,
      "Ġhyperscalers": 7059,
      "Ġtransforming": 7060,
      "work": 7061,
      "Ġgranular": 7062,
      "Ġcoronav": 7063,
      "Ġmeasurement": 7064,
      "Ġrenewable": 7065,
      "Ġlegal": 7066,
      "Ġcollectively": 7067,
      "Ġdiversity": 7068,
      "Ġraised": 7069,
      "growth": 7070,
      "Ġmonitoring": 7071,
      "Ġpurs": 7072,
      "Ġresponsibility": 7073,
      "ĠRetail": 7074,
      "Ġranging": 7075,
      "Ġscreen": 7076,
      "ĠGenuity": 7077,
      "Ġcarriers": 7078,
      "Ġimmediately": 7079,
      "Ġspanning": 7080,
      "Ġinclusive": 7081,
      "ĠEngineering": 7082,
      "Ġdisclosures": 7083,
      "ĠLithography": 7084,
      "Ġfleet": 7085,
      "Ġpleasure": 7086,
      "Sandeep": 7087,
      "Welcome": 7088,
      "Ġpellic": 7089,
      "Ġgeopol": 7090,
      "ĠCotter": 7091,
      "ĠJitendra": 7092,
      "Ġbreakeven": 7093,
      "Ġcoronavirus": 7094,
      ".\"": 7095,
      "BIT": 7096,
      "CT": 7097,
      "Credit": 7098,
      "Farhan": 7099,
      "],": 7100,
      "cum": 7101,
      "fric": 7102,
      "ients": 7103,
      "poin": 7104,
      "rate": 7105,
      "width": 7106,
      "rex": 7107,
      "Ġsources": 7108,
      "Ġcat": 7109,
      "aries": 7110,
      "oring": 7111,
      "itter": 7112,
      "Ġinher": 7113,
      "Ġfashion": 7114,
      "Ġmut": 7115,
      "ioned": 7116,
      "ster": 7117,
      "ĠAPU": 7118,
      "ĠAfric": 7119,
      "ĠIce": 7120,
      "Ġhires": 7121,
      "Ġlock": 7122,
      "veiled": 7123,
      "ĠTier": 7124,
      "Ġbeaut": 7125,
      "imin": 7126,
      "ĠMid": 7127,
      "ĠMun": 7128,
      "mentioned": 7129,
      "ĠDB": 7130,
      "Ġstri": 7131,
      "Ġstates": 7132,
      "Ġproven": 7133,
      "Ġexited": 7134,
      "ried": 7135,
      "ifer": 7136,
      "iful": 7137,
      "ĠEBIT": 7138,
      "ĠPub": 7139,
      "Ġshel": 7140,
      "ured": 7141,
      "apore": 7142,
      "andwidth": 7143,
      "Ġintake": 7144,
      "ĠFull": 7145,
      "ĠFire": 7146,
      "ĠFound": 7147,
      "Ġtrailing": 7148,
      "ĠLearning": 7149,
      "Ġallud": 7150,
      "Ġunusual": 7151,
      "Ġcontinuation": 7152,
      "Ġ47": 7153,
      "Ġ54": 7154,
      "Ġfees": 7155,
      "ĠASI": 7156,
      "ĠColl": 7157,
      "Ġendpoint": 7158,
      "Ġ61": 7159,
      "Ġanniversary": 7160,
      "Ġunderway": 7161,
      "Ġunderstood": 7162,
      "Ġunderneath": 7163,
      "osition": 7164,
      "Ġrelate": 7165,
      "Ġentered": 7166,
      "urned": 7167,
      "Ġroles": 7168,
      "Ġrealistic": 7169,
      "ĠReg": 7170,
      "ĠRevenues": 7171,
      "Ġlearnings": 7172,
      "Ġ974": 7173,
      "Ġslide": 7174,
      "Ġcreative": 7175,
      "forementioned": 7176,
      "Ġassumes": 7177,
      "Ġinnovating": 7178,
      "Ġheld": 7179,
      "Ġtopic": 7180,
      "Ġintroducing": 7181,
      "Ġsuccessfully": 7182,
      "Ġregards": 7183,
      "Ġconnections": 7184,
      "Ġreferencing": 7185,
      "Ġanswered": 7186,
      "roprocess": 7187,
      "Ġlistening": 7188,
      "ĠShare": 7189,
      "ĠShopping": 7190,
      "Ġadvantages": 7191,
      "ĠHeath": 7192,
      "ĠSIG": 7193,
      "Ġvirtually": 7194,
      "Ġestimated": 7195,
      "Ġenhancing": 7196,
      "Ġadopting": 7197,
      "Ġmaterials": 7198,
      "Ġexceeding": 7199,
      "Ġwatching": 7200,
      "Ġpredictions": 7201,
      "Ġencouraging": 7202,
      "ĠSanders": 7203,
      "Ġraise": 7204,
      "ĠPhot": 7205,
      "Ġsessions": 7206,
      "Ġbriefly": 7207,
      "Ġmicroprocess": 7208,
      "ĠEdward": 7209,
      "Ġcutting": 7210,
      "quality": 7211,
      "Ġsensors": 7212,
      "Ġfloating": 7213,
      "Ġseparate": 7214,
      "Ġqualitatively": 7215,
      "Ġcamera": 7216,
      "Ġcameras": 7217,
      "accelerated": 7218,
      "Ġevaluate": 7219,
      "Ġtransparent": 7220,
      "Ġgrocery": 7221,
      "ĠTwitter": 7222,
      "Ġcircum": 7223,
      "Ġsubsequent": 7224,
      "ĠGrowth": 7225,
      "ĠProgramm": 7226,
      "Revenue": 7227,
      "Ġbenchm": 7228,
      "ĠBelieves": 7229,
      "ĠAdobe": 7230,
      "ĠSingapore": 7231,
      "Ġvibrant": 7232,
      "Ġdatacenter": 7233,
      "ĠChromebooks": 7234,
      "ĠAustralia": 7235,
      "Ġpursue": 7236,
      "Ġgeopolitical": 7237,
      "points": 7238,
      "Ġbeautiful": 7239,
      "ĠMiddle": 7240,
      "ĠEBITDA": 7241,
      "Ġcircumst": 7242,
      "90": 7243,
      "99": 7244,
      "Again": 7245,
      "Congratulations": 7246,
      "FN": 7247,
      "How": 7248,
      "Head": 7249,
      "II": 7250,
      "KM": 7251,
      "Non": 7252,
      "Oppenheimer": 7253,
      "OCT": 7254,
      "Susquehanna": 7255,
      "app": 7256,
      "care": 7257,
      "fr": 7258,
      "from": 7259,
      "focused": 7260,
      "get": 7261,
      "hand": 7262,
      "iu": 7263,
      "mos": 7264,
      "pose": 7265,
      "rated": 7266,
      "uart": 7267,
      "Ġer": 7268,
      "Ġtel": 7269,
      "Ġthrilled": 7270,
      "ons": 7271,
      "ativity": 7272,
      "enk": 7273,
      "Ġsir": 7274,
      "Ġsays": 7275,
      "Ġsitting": 7276,
      "Ġbro": 7277,
      "Ġbid": 7278,
      "anking": 7279,
      "angan": 7280,
      "Ġfile": 7281,
      "Ġfacing": 7282,
      "Ġpatterning": 7283,
      "Ġdest": 7284,
      "Ġdeter": 7285,
      "ĠAV": 7286,
      "ĠAfter": 7287,
      "icial": 7288,
      "Ġhos": 7289,
      "Ġlag": 7290,
      "Ġlatter": 7291,
      "Ġloy": 7292,
      "ĠCent": 7293,
      "ĠSc": 7294,
      "ĠSimon": 7295,
      "lemental": 7296,
      "vere": 7297,
      "quid": 7298,
      "imilar": 7299,
      "Ġconcept": 7300,
      "Ġconferences": 7301,
      "Ġstop": 7302,
      "ĠRiver": 7303,
      "ĠRangan": 7304,
      "Ġupper": 7305,
      "added": 7306,
      "ective": 7307,
      "sem": 7308,
      "ĠBI": 7309,
      "ĠBad": 7310,
      "Ġround": 7311,
      "aba": 7312,
      "ulus": 7313,
      "ĠGerra": 7314,
      "ela": 7315,
      "Ġexpensive": 7316,
      "Ġcompat": 7317,
      "umph": 7318,
      "arding": 7319,
      "Ġintend": 7320,
      "Ġintended": 7321,
      "ĠHelf": 7322,
      "ĠFurther": 7323,
      "ĠFrid": 7324,
      "ecraft": 7325,
      "ptela": 7326,
      "ogene": 7327,
      "Ġmapping": 7328,
      "Ġperce": 7329,
      "Ġkick": 7330,
      "Ġunf": 7331,
      "Ġunveiled": 7332,
      "Ġtimefr": 7333,
      "ĠUCS": 7334,
      "Ġchance": 7335,
      "Ġcapable": 7336,
      "ĠStarting": 7337,
      "ĠStuart": 7338,
      "ĠKrishn": 7339,
      "Ġ53": 7340,
      "gra": 7341,
      "Ġnumer": 7342,
      "ought": 7343,
      "ĠApps": 7344,
      "Ġtheme": 7345,
      "ĠWhether": 7346,
      "Ġsupplemental": 7347,
      "Ġaccelerators": 7348,
      "Ġshouldn": 7349,
      "Ġannouncing": 7350,
      "Ġcreativity": 7351,
      "Ġdepartment": 7352,
      "Ġletting": 7353,
      "Ġpercentages": 7354,
      "Ġmoments": 7355,
      "Ġcapacities": 7356,
      "Ġinstruct": 7357,
      "Ġsurely": 7358,
      "Ġbroadcast": 7359,
      "Ġbroadening": 7360,
      "Ġcyber": 7361,
      "Ġsucceed": 7362,
      "Ġpowering": 7363,
      "ognitive": 7364,
      "Ġshifted": 7365,
      "ĠMeet": 7366,
      "Stifel": 7367,
      "Ġevidence": 7368,
      "Ġanswers": 7369,
      "ristan": 7370,
      "Ġforecasted": 7371,
      "Ġcollaborate": 7372,
      "Ġfinding": 7373,
      "Ġbreaking": 7374,
      "Ġabsor": 7375,
      "ĠZe": 7376,
      "Ġsuperior": 7377,
      "ĠUnivers": 7378,
      "ĠHardin": 7379,
      "Ġconfirmation": 7380,
      "Ġnegatively": 7381,
      "ĠMoff": 7382,
      "Ġupgraded": 7383,
      "Ġpulled": 7384,
      "Ġwondered": 7385,
      "Ġutil": 7386,
      "Ġcyclical": 7387,
      "ĠWestern": 7388,
      "Ġallowing": 7389,
      "Ġwrong": 7390,
      "Ġvolatile": 7391,
      "Ġtranslate": 7392,
      "Ġpassed": 7393,
      "positioned": 7394,
      "Ġmarked": 7395,
      "Ġworkstation": 7396,
      "Ġimmersive": 7397,
      "Ġsimplify": 7398,
      "Ġdelayed": 7399,
      "ĠWorldwide": 7400,
      "Ġsurpassed": 7401,
      "Ġmovies": 7402,
      "OBER": 7403,
      "Ġlinearity": 7404,
      "ĠPatrick": 7405,
      "Ġpredominantly": 7406,
      "Ġremarkable": 7407,
      "Ġhedging": 7408,
      "Enterprise": 7409,
      "ĠMinecraft": 7410,
      "Ġbattery": 7411,
      "Ġelaborate": 7412,
      "ĠAfrica": 7413,
      "OCTOBER": 7414,
      "Ġdeterior": 7415,
      "Ġhospital": 7416,
      "ĠHelfstein": 7417,
      "ĠFriday": 7418,
      "ĠKrishna": 7419,
      "87": 7420,
      "Com": 7421,
      "Craig": 7422,
      "Certainly": 7423,
      "DD": 7424,
      "Lens": 7425,
      "Other": 7426,
      "Un": 7427,
      "aper": 7428,
      "cies": 7429,
      "ground": 7430,
      "iable": 7431,
      "kn": 7432,
      "ml": 7433,
      "mic": 7434,
      "mart": 7435,
      "nanometers": 7436,
      "range": 7437,
      "ship": 7438,
      "uid": 7439,
      "wa": 7440,
      "inson": 7441,
      "erc": 7442,
      "erick": 7443,
      "encent": 7444,
      "Ġsent": 7445,
      "Ġschool": 7446,
      "Ġsquee": 7447,
      "arables": 7448,
      "esign": 7449,
      "anaray": 7450,
      "Ġpure": 7451,
      "Ġpage": 7452,
      "Ġwearables": 7453,
      "ĠAli": 7454,
      "Ġgear": 7455,
      "Ġhom": 7456,
      "Ġlas": 7457,
      "Ġlack": 7458,
      "ĠShan": 7459,
      "ĠSaw": 7460,
      "ĠSaty": 7461,
      "lebr": 7462,
      "utilization": 7463,
      "quart": 7464,
      "using": 7465,
      "ĠTencent": 7466,
      "owe": 7467,
      "Ġstability": 7468,
      "ĠRend": 7469,
      "Ġdecent": 7470,
      "ĠIng": 7471,
      "ĠInventory": 7472,
      "ots": 7473,
      "ĠOkay": 7474,
      "outing": 7475,
      "iles": 7476,
      "ĠNancy": 7477,
      "ĠHou": 7478,
      "ĠHave": 7479,
      "ĠHumph": 7480,
      "ĠLo": 7481,
      "ĠLowe": 7482,
      "tered": 7483,
      "Ġsomeone": 7484,
      "Ġinvolved": 7485,
      "ĠQiu": 7486,
      "Ġyourself": 7487,
      "ĠJoining": 7488,
      "Ġoutcom": 7489,
      "Ġoutperform": 7490,
      "Ġserving": 7491,
      "Ġhowever": 7492,
      "Ġguarant": 7493,
      "Ġrecall": 7494,
      "istically": 7495,
      "Ġkid": 7496,
      "Ġcontinuity": 7497,
      "Ġcontinuously": 7498,
      "Ġremot": 7499,
      "achter": 7500,
      "Ġcurrencies": 7501,
      "ĠSupers": 7502,
      "ios": 7503,
      "ĠTegra": 7504,
      "Ġends": 7505,
      "Ġendpoints": 7506,
      "Ġchunk": 7507,
      "osion": 7508,
      "ĠWhy": 7509,
      "Ġknew": 7510,
      "Ġbeta": 7511,
      "Ġsoftness": 7512,
      "Ġspecified": 7513,
      "Ġversions": 7514,
      "Ġsmarter": 7515,
      "Ġdependent": 7516,
      "Ġplanar": 7517,
      "vertising": 7518,
      "Ġconsume": 7519,
      "ype": 7520,
      "Ġinstead": 7521,
      "Ġmovements": 7522,
      "Ġdecide": 7523,
      "ĠProject": 7524,
      "Ġacquire": 7525,
      "Ġsearches": 7526,
      "Ġcarries": 7527,
      "ĠRobinson": 7528,
      "Ġpayable": 7529,
      "Ġclosures": 7530,
      "Ġvisits": 7531,
      "Ġhandle": 7532,
      "Ġdifferentiator": 7533,
      "Ġaffects": 7534,
      "Ġaffecting": 7535,
      "ĠONE": 7536,
      "Ġreception": 7537,
      "Ġpresented": 7538,
      "Ġdistribute": 7539,
      "Ġtrial": 7540,
      "eek": 7541,
      "ĠSecondly": 7542,
      "Ġcontrols": 7543,
      "Ġ2008": 7544,
      "ĠSpark": 7545,
      "ĠAcc": 7546,
      "ĠAcross": 7547,
      "abyte": 7548,
      "Ġenhancements": 7549,
      "Ġpromise": 7550,
      "Ġmembership": 7551,
      "Ġseemed": 7552,
      "Ġmoderating": 7553,
      "Ġtranslation": 7554,
      "Ġassessment": 7555,
      "Ġpursu": 7556,
      "Ġdomain": 7557,
      "Ġenjo": 7558,
      "Ġdetection": 7559,
      "Ġbreakthroughs": 7560,
      "Ġlaws": 7561,
      "Ġfunctions": 7562,
      "Ġmessages": 7563,
      "Ġfundamentals": 7564,
      "Ġholding": 7565,
      "Ġenthusiast": 7566,
      "ĠMitchell": 7567,
      "Ġstepped": 7568,
      "Ġtransparency": 7569,
      "Lastly": 7570,
      "ĠLPDRAM": 7571,
      "Ġestablished": 7572,
      "Ġobserv": 7573,
      "Rajvindra": 7574,
      "uilding": 7575,
      "selling": 7576,
      "Ġmotion": 7577,
      "Ġdedicated": 7578,
      "ĠViptela": 7579,
      "Ġhorizon": 7580,
      "ĠKPI": 7581,
      "ĠSchachter": 7582,
      "flows": 7583,
      "Ġapologize": 7584,
      "ammy": 7585,
      "ĠPublic": 7586,
      "Ġcircumstances": 7587,
      "Ġerosion": 7588,
      "quidity": 7589,
      "ĠBadri": 7590,
      "ogeneous": 7591,
      "Ġtimeframe": 7592,
      "ĠMoffettNathanson": 7593,
      "anarayana": 7594,
      "ĠSatyanarayana": 7595,
      "quarters": 7596,
      "ĠHumphrey": 7597,
      "Ġoutcomes": 7598,
      "ĠSupersector": 7599,
      "250": 7600,
      "81": 7601,
      "82": 7602,
      "Cross": 7603,
      "Google": 7604,
      "Jagadish": 7605,
      "Kit": 7606,
      "Kathryn": 7607,
      "Mac": 7608,
      "PE": 7609,
      "RM": 7610,
      "Seg": 7611,
      "bing": 7612,
      "bly": 7613,
      "baba": 7614,
      "faces": 7615,
      "house": 7616,
      "lights": 7617,
      "not": 7618,
      "oLens": 7619,
      "puters": 7620,
      "school": 7621,
      "smos": 7622,
      "turn": 7623,
      "vo": 7624,
      "watch": 7625,
      "week": 7626,
      "Ġtier": 7627,
      "inist": 7628,
      "Ġwar": 7629,
      "Ġweren": 7630,
      "atile": 7631,
      "Ġske": 7632,
      "Ġsensor": 7633,
      "Ġinorgan": 7634,
      "Ġbus": 7635,
      "Ġball": 7636,
      "Ġbought": 7637,
      "Ġfri": 7638,
      "Ġfans": 7639,
      "ising": 7640,
      "Ġpent": 7641,
      "Ġpill": 7642,
      "Ġder": 7643,
      "ĠAMP": 7644,
      "urrency": 7645,
      "ĠCare": 7646,
      "ĠCRM": 7647,
      "ĠSou": 7648,
      "ĠSpecific": 7649,
      "Ġnorth": 7650,
      "verged": 7651,
      "Ġeight": 7652,
      "Ġforget": 7653,
      "ĠMich": 7654,
      "Ġasp": 7655,
      "Ġaspect": 7656,
      "ĠDonald": 7657,
      "Ġstim": 7658,
      "Ġproof": 7659,
      "ĠRosenblatt": 7660,
      "ldho": 7661,
      "sef": 7662,
      "Ġneutral": 7663,
      "ĠBRI": 7664,
      "Ġexpress": 7665,
      "ĠNXT": 7666,
      "Ġcompris": 7667,
      "Ġuptake": 7668,
      "aster": 7669,
      "ĠFox": 7670,
      "unction": 7671,
      "Ġsoph": 7672,
      "Ġsovere": 7673,
      "ĠLadies": 7674,
      "Ġresolution": 7675,
      "Ġnotice": 7676,
      "Ġnewest": 7677,
      "Ġliquidity": 7678,
      "Ġleap": 7679,
      "berg": 7680,
      "Ġpreview": 7681,
      "oussef": 7682,
      "ĠChrist": 7683,
      "ĠCharles": 7684,
      "ocurrency": 7685,
      "Ġagility": 7686,
      "Ġagencies": 7687,
      "ĠYield": 7688,
      "roughout": 7689,
      "elle": 7690,
      "Ġ51": 7691,
      "achine": 7692,
      "ronts": 7693,
      "ĠCosmos": 7694,
      "Ġunderutilization": 7695,
      "Ġpriced": 7696,
      "Ġsupplement": 7697,
      "Ġbuildings": 7698,
      "Ġrecording": 7699,
      "Ġdevelopments": 7700,
      "quently": 7701,
      "Ġstrengths": 7702,
      "Ġindicator": 7703,
      "Ġordering": 7704,
      "Ġviewed": 7705,
      "loyd": 7706,
      "Ġinstru": 7707,
      "Ġequal": 7708,
      "ĠInstalled": 7709,
      "Ġeffectiveness": 7710,
      "Ġentirety": 7711,
      "Ġcolle": 7712,
      "Ġspeaks": 7713,
      "Ġmining": 7714,
      "Ġprepayments": 7715,
      "ĠmacOS": 7716,
      "Ġinternationally": 7717,
      "Ġforms": 7718,
      "Ġaddressed": 7719,
      "Ġattention": 7720,
      "Ġprofessionals": 7721,
      "Ġswitchers": 7722,
      "Ġlocated": 7723,
      "Ġtransacting": 7724,
      "ĠKey": 7725,
      "Ġreviewed": 7726,
      "Ġcaused": 7727,
      "ĠNOW": 7728,
      "ĠForms": 7729,
      "Ġsummer": 7730,
      "Ġdilutive": 7731,
      "Ġachievements": 7732,
      "ĠAccount": 7733,
      "ĠHighlights": 7734,
      "Ġcorrection": 7735,
      "Ġideal": 7736,
      "Ġscalable": 7737,
      "ĠBrad": 7738,
      "Ġcollection": 7739,
      "Ġreinfor": 7740,
      "Ġsupercomputers": 7741,
      "Ġphotore": 7742,
      "Ġpackages": 7743,
      "Ġobjective": 7744,
      "Ġfuel": 7745,
      "Ġdialog": 7746,
      "ĠReturned": 7747,
      "Keith": 7748,
      "Ġprioritize": 7749,
      "Ġnamely": 7750,
      "Ġseparately": 7751,
      "ĠHoloLens": 7752,
      "Ġevaluating": 7753,
      "Ġwindow": 7754,
      "Ġdetermine": 7755,
      "ĠWiFi": 7756,
      "ĠAnnual": 7757,
      "Ġglad": 7758,
      "ĠLatin": 7759,
      "ĠISVs": 7760,
      "Ġshaping": 7761,
      "Ġwatts": 7762,
      "Ġstreams": 7763,
      "Ġadminist": 7764,
      "Ġcelebr": 7765,
      "Ġpivot": 7766,
      "ĠMunster": 7767,
      "Ġalluded": 7768,
      "ĠASICs": 7769,
      "Ġmicroprocessor": 7770,
      "ĠProgrammable": 7771,
      "ĠZeiss": 7772,
      "ĠAlibaba": 7773,
      "Ġlaser": 7774,
      "Ġguarantee": 7775,
      "Ġremotely": 7776,
      "Ġenjoying": 7777,
      "Segment": 7778,
      "Ġpillar": 7779,
      "ĠDonaldson": 7780,
      "ldhoven": 7781,
      "Ġsophistic": 7782,
      "Ġsovereign": 7783,
      "350": 7784,
      "700": 7785,
      "84": 7786,
      "Ben": 7787,
      "Bernstein": 7788,
      "COVID": 7789,
      "Hans": 7790,
      "Jeff": 7791,
      "Office": 7792,
      "PC": 7793,
      "Sorry": 7794,
      "Toni": 7795,
      "US": 7796,
      "Very": 7797,
      "Wal": 7798,
      "ai": 7799,
      "book": 7800,
      "ek": 7801,
      "iance": 7802,
      "lines": 7803,
      "nes": 7804,
      "pic": 7805,
      "uro": 7806,
      "Ġtun": 7807,
      "intal": 7808,
      "erday": 7809,
      "Ġsing": 7810,
      "arrow": 7811,
      "aralle": 7812,
      "Ġfire": 7813,
      "Ġfronts": 7814,
      "Ġpaus": 7815,
      "Ġdimens": 7816,
      "ential": 7817,
      "Ġreall": 7818,
      "ctors": 7819,
      "ĠSold": 7820,
      "ĠSunTrust": 7821,
      "ĠTem": 7822,
      "igg": 7823,
      "ĠMade": 7824,
      "Ġasml": 7825,
      "uster": 7826,
      "Ġconform": 7827,
      "Ġconcent": 7828,
      "Ġconferencing": 7829,
      "esterday": 7830,
      "ĠRD": 7831,
      "ĠRidge": 7832,
      "ĠWond": 7833,
      "ĠWamsi": 7834,
      "ooth": 7835,
      "ĠOl": 7836,
      "ĠBing": 7837,
      "ĠBret": 7838,
      "ulb": 7839,
      "Ġshown": 7840,
      "Ġcompil": 7841,
      "ĠSoCs": 7842,
      "Ġseek": 7843,
      "Ġoverlay": 7844,
      "ogether": 7845,
      "ĠLa": 7846,
      "Ġ360": 7847,
      "Ġmak": 7848,
      "Ġnotes": 7849,
      "Ġparties": 7850,
      "Ġtext": 7851,
      "Ġlease": 7852,
      "Ġserious": 7853,
      "ĠVir": 7854,
      "ĠVoice": 7855,
      "Ġunb": 7856,
      "Ġunable": 7857,
      "ensus": 7858,
      "eping": 7859,
      "Ġearn": 7860,
      "ĠStud": 7861,
      "ĠStack": 7862,
      "Ġadds": 7863,
      "uchintal": 7864,
      "Ġworkflows": 7865,
      "Ġdownload": 7866,
      "Ġgreatest": 7867,
      "ĠCob": 7868,
      "Ġimproves": 7869,
      "avier": 7870,
      "ĠWhite": 7871,
      "Ġnobody": 7872,
      "Ġ71": 7873,
      "Ġbranch": 7874,
      "comput": 7875,
      "Ġ94": 7876,
      "Ġregional": 7877,
      "ĠAds": 7878,
      "Ġassumed": 7879,
      "Ġpersist": 7880,
      "Soft": 7881,
      "Ġcoupled": 7882,
      "Ġfeels": 7883,
      "ĠSeries": 7884,
      "Ġsometime": 7885,
      "Ġsets": 7886,
      "ĠCanaccord": 7887,
      "fficient": 7888,
      "Ġcombining": 7889,
      "ĠSequent": 7890,
      "Starting": 7891,
      "Ġshorter": 7892,
      "Ġconnecting": 7893,
      "Ġorganically": 7894,
      "ĠCompute": 7895,
      "Ġnegoti": 7896,
      "Ġsimilarly": 7897,
      "Ġfabric": 7898,
      "Ġconversions": 7899,
      "Ġsecurely": 7900,
      "Ġholidays": 7901,
      "Ġconsideration": 7902,
      "Ġreading": 7903,
      "ĠMoving": 7904,
      "downs": 7905,
      "Ġdilution": 7906,
      "Ġpulling": 7907,
      "Ġcorner": 7908,
      "Ġprogrammable": 7909,
      "Ġintroductions": 7910,
      "intensive": 7911,
      "Ġutility": 7912,
      "Ġsubstitut": 7913,
      "ĠAnything": 7914,
      "Ġperforming": 7915,
      "ĠVolvo": 7916,
      "aguar": 7917,
      "Ġadvancements": 7918,
      "Ġunparalle": 7919,
      "offs": 7920,
      "Ġimplemented": 7921,
      "Ġimplementation": 7922,
      "Ġtranslates": 7923,
      "Ġcarrying": 7924,
      "Ġcryptocurrency": 7925,
      "Ġoccurring": 7926,
      "effective": 7927,
      "Ġparam": 7928,
      "Ġwarehouse": 7929,
      "ĠCascade": 7930,
      "Ġextension": 7931,
      "Ġprecision": 7932,
      "ĠAuto": 7933,
      "Ġresilience": 7934,
      "ĠMCPs": 7935,
      "ĠBroadSoft": 7936,
      "ĠDepartment": 7937,
      "ĠBlackledge": 7938,
      "Ġunderscore": 7939,
      "Ġholistic": 7940,
      "ĠICAP": 7941,
      "Ġincorporates": 7942,
      "Ġinfluence": 7943,
      "ĠSeeing": 7944,
      "ĠVeldhoven": 7945,
      "ĠRenduchintal": 7946,
      "Ġskew": 7947,
      "Ġsovereignty": 7948,
      "Ġrealloc": 7949,
      "ĠBrett": 7950,
      "Ġunparalleled": 7951,
      "ĠRenduchintala": 7952,
      "Banc": 7953,
      "Ear": 7954,
      "FT": 7955,
      "IMM": 7956,
      "JAN": 7957,
      "Net": 7958,
      "Piper": 7959,
      "SA": 7960,
      "Tech": 7961,
      "bit": 7962,
      "cr": 7963,
      "fe": 7964,
      "gre": 7965,
      "jj": 7966,
      "junction": 7967,
      "lift": 7968,
      "mod": 7969,
      "sic": 7970,
      "vid": 7971,
      "we": 7972,
      "ycl": 7973,
      "Ġur": 7974,
      "Ġtasks": 7975,
      "Ġaim": 7976,
      "Ġaforementioned": 7977,
      "erge": 7978,
      "rest": 7979,
      "Ġwater": 7980,
      "Ġinform": 7981,
      "ann": 7982,
      "anam": 7983,
      "Ġmis": 7984,
      "Ġmember": 7985,
      "rod": 7986,
      "ednes": 7987,
      "Ġdie": 7988,
      "ĠIm": 7989,
      "Ġreacceler": 7990,
      "Ġlink": 7991,
      "Ġlens": 7992,
      "Ġlost": 7993,
      "ĠCPE": 7994,
      "ĠSqual": 7995,
      "Ġnarrow": 7996,
      "ĠeM": 7997,
      "Ġonboard": 7998,
      "ĠTrans": 7999,
      "ĠToni": 8000,
      "Ġseven": 8001,
      "imited": 8002,
      "Ġassem": 8003,
      "ĠDun": 8004,
      "ĠDouble": 8005,
      "Ġconjunction": 8006,
      "Ġpropos": 8007,
      "ĠWednes": 8008,
      "ifth": 8009,
      "ection": 8010,
      "seas": 8011,
      "ĠBefore": 8012,
      "Ġride": 8013,
      "Ġgrows": 8014,
      "ĠGraph": 8015,
      "ĠGTX": 8016,
      "antic": 8017,
      "Ġsho": 8018,
      "ĠNational": 8019,
      "umb": 8020,
      "uming": 8021,
      "Ġuplift": 8022,
      "Ġintention": 8023,
      "Ġintang": 8024,
      "ormal": 8025,
      "Ġquestioner": 8026,
      "ĠAnaly": 8027,
      "Ġoverseas": 8028,
      "ecurity": 8029,
      "ĠLead": 8030,
      "Ġresume": 8031,
      "Ġinvention": 8032,
      "Ġplaced": 8033,
      "ĠJason": 8034,
      "Ġpartial": 8035,
      "Ġouts": 8036,
      "Ġmeg": 8037,
      "Ġteach": 8038,
      "ocol": 8039,
      "Ġtransit": 8040,
      "ĠKir": 8041,
      "ĠKaly": 8042,
      "Ġ56": 8043,
      "ronics": 8044,
      "Ġ67": 8045,
      "Ġunderp": 8046,
      "Ġfluid": 8047,
      "Ġbasic": 8048,
      "Ġ700": 8049,
      "Ġexperts": 8050,
      "Ġbelie": 8051,
      "uces": 8052,
      "Ġvalued": 8053,
      "Ġclock": 8054,
      "Ġemerge": 8055,
      "Ġharder": 8056,
      "Ġinterconnect": 8057,
      "Ġ800": 8058,
      "techn": 8059,
      "ĠXavier": 8060,
      "Ġbroaden": 8061,
      "Ġdeck": 8062,
      "Ġaccrued": 8063,
      "ode": 8064,
      "Ġcounting": 8065,
      "Ġheadquarters": 8066,
      "Ġautomated": 8067,
      "bersecurity": 8068,
      "ĠConst": 8069,
      "Ġinsp": 8070,
      "Ġprojected": 8071,
      "Ġpositively": 8072,
      "Ġrecognizing": 8073,
      "Ġminers": 8074,
      "aboration": 8075,
      "Ġdefine": 8076,
      "Ġfoundational": 8077,
      "ĠToky": 8078,
      "Ġcompletion": 8079,
      "ĠIndian": 8080,
      "Ġelimin": 8081,
      "Ġcollaborating": 8082,
      "Ġscan": 8083,
      "ĠPajj": 8084,
      "Ġreadiness": 8085,
      "Ġdispl": 8086,
      "Ġprotocol": 8087,
      "Ġgrant": 8088,
      "ĠEuropean": 8089,
      "Ġtremendously": 8090,
      "aneously": 8091,
      "Ġchips": 8092,
      "Ġfootage": 8093,
      "Ġmaintained": 8094,
      "Add": 8095,
      "Ġrelevance": 8096,
      "Ġroadmaps": 8097,
      "Ġparalle": 8098,
      "support": 8099,
      "ĠMaxwell": 8100,
      "ĠAdditional": 8101,
      "ĠSDK": 8102,
      "ĠPlatforms": 8103,
      "Ġreliable": 8104,
      "Ġdelays": 8105,
      "Ġwidely": 8106,
      "Ġambition": 8107,
      "Ġexceptional": 8108,
      "Ġbudgets": 8109,
      "Ġaccordingly": 8110,
      "Ġaccomplishments": 8111,
      "Ġgradually": 8112,
      "Ġmissed": 8113,
      "Ġdurable": 8114,
      "Ġpreparing": 8115,
      "Ġarticulated": 8116,
      "Ġsports": 8117,
      "Ġargue": 8118,
      "Ġflagship": 8119,
      "Ġmanufacturers": 8120,
      "Ġuniversal": 8121,
      "Ġemphasis": 8122,
      "ĠMalik": 8123,
      "Ġconfiguration": 8124,
      "Samik": 8125,
      "Ġinstitutions": 8126,
      "Ġkids": 8127,
      "ĠSpecifically": 8128,
      "Ġsophisticated": 8129,
      "Walter": 8130,
      "Ġsingular": 8131,
      "ĠOlson": 8132,
      "ulbinder": 8133,
      "ĠCobban": 8134,
      "JANUARY": 8135,
      "ĠSquali": 8136,
      "ĠDuncan": 8137,
      "ĠWednesday": 8138,
      "ĠAnalytics": 8139,
      "ĠKalyanam": 8140,
      "ĠTokyo": 8141,
      "ĠPajjuri": 8142,
      "02": 8143,
      "93": 8144,
      "98": 8145,
      "By": 8146,
      "Data": 8147,
      "Daniel": 8148,
      "EISS": 8149,
      "FS": 8150,
      "FIN": 8151,
      "Flow": 8152,
      "Greet": 8153,
      "Look": 8154,
      "NN": 8155,
      "Ne": 8156,
      "New": 8157,
      "Oh": 8158,
      "Ps": 8159,
      "Pal": 8160,
      "Simon": 8161,
      "Wamsi": 8162,
      "dream": 8163,
      "gu": 8164,
      "iented": 8165,
      "len": 8166,
      "lands": 8167,
      "ming": 8168,
      "mbre": 8169,
      "nite": 8170,
      "oen": 8171,
      "tier": 8172,
      "uing": 8173,
      "ugh": 8174,
      "Ġtick": 8175,
      "Ġoil": 8176,
      "atri": 8177,
      "oriented": 8178,
      "esides": 8179,
      "Ġbandwidth": 8180,
      "Ġpages": 8181,
      "Ġpaper": 8182,
      "Ġdiv": 8183,
      "lla": 8184,
      "ĠIM": 8185,
      "Ġher": 8186,
      "Ġhim": 8187,
      "Ġheter": 8188,
      "Ġreop": 8189,
      "etite": 8190,
      "ĠSU": 8191,
      "ĠSilicon": 8192,
      "chest": 8193,
      "user": 8194,
      "usion": 8195,
      "igor": 8196,
      "ĠMain": 8197,
      "ĠMany": 8198,
      "ĠMini": 8199,
      "Ġque": 8200,
      "idenced": 8201,
      "mentally": 8202,
      "ĠDa": 8203,
      "Ġstake": 8204,
      "ĠRep": 8205,
      "Ġdele": 8206,
      "iffer": 8207,
      "ades": 8208,
      "ĠEGX": 8209,
      "see": 8210,
      "Ġrad": 8211,
      "Ġraw": 8212,
      "Ġrules": 8213,
      "ighter": 8214,
      "ulty": 8215,
      "ĠGrew": 8216,
      "ĠGene": 8217,
      "Ġshop": 8218,
      "ĠNether": 8219,
      "ĠHong": 8220,
      "ĠHuman": 8221,
      "Ġdoz": 8222,
      "Ġsoci": 8223,
      "Ġoversu": 8224,
      "Ġvital": 8225,
      "ĠIncl": 8226,
      "ĠJo": 8227,
      "ĠJagadish": 8228,
      "Ġparty": 8229,
      "Ġliving": 8230,
      "ĠVM": 8231,
      "istor": 8232,
      "Ġsave": 8233,
      "Ġwherever": 8234,
      "Ġwhereby": 8235,
      "Ġcontinuous": 8236,
      "ĠKong": 8237,
      "ĠItaly": 8238,
      "Ġrepatri": 8239,
      "Ġbackground": 8240,
      "ĠDev": 8241,
      "Ġassistant": 8242,
      "ĠCombin": 8243,
      "akes": 8244,
      "Ġnoise": 8245,
      "Ġfollows": 8246,
      "Ġrealizing": 8247,
      "type": 8248,
      "Ġdesire": 8249,
      "ĠReal": 8250,
      "ĠReview": 8251,
      "Ġdeclared": 8252,
      "Ġprincip": 8253,
      "converged": 8254,
      "Ġretire": 8255,
      "Ġplanet": 8256,
      "Ġturned": 8257,
      "Ġentity": 8258,
      "ĠXpoint": 8259,
      "Ġdesigners": 8260,
      "Ġequally": 8261,
      "Ġoperation": 8262,
      "ĠKrist": 8263,
      "Ġbalancing": 8264,
      "Ġstands": 8265,
      "Ġwaiting": 8266,
      "Ġlowest": 8267,
      "Ġregardless": 8268,
      "Ġfranch": 8269,
      "Ġprojecting": 8270,
      "ennifer": 8271,
      "Ġevidenced": 8272,
      "Ġissued": 8273,
      "Ġlaying": 8274,
      "Ġdriverless": 8275,
      "Ġdocument": 8276,
      "ĠArcade": 8277,
      "Ġestate": 8278,
      "ĠZEISS": 8279,
      "Ġaddressable": 8280,
      "Ġdealing": 8281,
      "Ġappreciated": 8282,
      "Ġaccuracy": 8283,
      "Ġcriter": 8284,
      "ĠDaydream": 8285,
      "Ġdifficulty": 8286,
      "ĠwatchOS": 8287,
      "Ġgovernments": 8288,
      "Ġgigantic": 8289,
      "Ġspeakers": 8290,
      "Ġbottlen": 8291,
      "ĠPhoen": 8292,
      "Ġpolicies": 8293,
      "ĠTensorFlow": 8294,
      "Ġrobotax": 8295,
      "Ġhosted": 8296,
      "ĠWork": 8297,
      "Ġmodernize": 8298,
      "ĠWalmart": 8299,
      "Ġmaturity": 8300,
      "Ġphoto": 8301,
      "Ġsamples": 8302,
      "ĠFrank": 8303,
      "Ġresponses": 8304,
      "Ġsubscriber": 8305,
      "Ġobjectives": 8306,
      "Ġschedul": 8307,
      "Ġvendor": 8308,
      "ĠConsistent": 8309,
      "Ġreliability": 8310,
      "Ġdelight": 8311,
      "ongrats": 8312,
      "Ġsettlement": 8313,
      "Ġsettlements": 8314,
      "Ġphenomenon": 8315,
      "Ġenthusiastic": 8316,
      "Ġempowering": 8317,
      "ĠPhilip": 8318,
      "ĠSami": 8319,
      "ĠSamik": 8320,
      "Ġattribute": 8321,
      "Ġpractices": 8322,
      "Ġscreens": 8323,
      "Ġimmediate": 8324,
      "Ġdisrupt": 8325,
      "erenberg": 8326,
      "Ġoutpacing": 8327,
      "Ġexpiry": 8328,
      "Ġexplos": 8329,
      "Ġmaximize": 8330,
      "Ġrebound": 8331,
      "Ġembrace": 8332,
      "Ġresonating": 8333,
      "ĠContinues": 8334,
      "service": 8335,
      "Ġexclusive": 8336,
      "Ġreleases": 8337,
      "Ġinherently": 8338,
      "Ġcompatible": 8339,
      "Ġinorganic": 8340,
      "Ġstimulus": 8341,
      "ĠAccounting": 8342,
      "Ġdialogue": 8343,
      "Ġtuned": 8344,
      "ĠLaunch": 8345,
      "critical": 8346,
      "Ġassembly": 8347,
      "technical": 8348,
      "Ġparallel": 8349,
      "Greetings": 8350,
      "mbrella": 8351,
      "ĠNetherlands": 8352,
      "Ġcriteria": 8353,
      "ĠPhoenix": 8354,
      "01": 8355,
      "Be": 8356,
      "Co": 8357,
      "NP": 8358,
      "Please": 8359,
      "Sh": 8360,
      "gene": 8361,
      "just": 8362,
      "lass": 8363,
      "learning": 8364,
      "mas": 8365,
      "nm": 8366,
      "pread": 8367,
      "tail": 8368,
      "vas": 8369,
      "xyz": 8370,
      "zing": 8371,
      "Ġ@": 8372,
      "iny": 8373,
      "Ġaid": 8374,
      "Ġwides": 8375,
      "enab": 8376,
      "enoy": 8377,
      "Ġsn": 8378,
      "Ġcert": 8379,
      "Ġclip": 8380,
      "arn": 8381,
      "itiv": 8382,
      "Ġbur": 8383,
      "Ġbesides": 8384,
      "alone": 8385,
      "Ġfifth": 8386,
      "Ġpion": 8387,
      "Ġpain": 8388,
      "Ġpending": 8389,
      "roll": 8390,
      "Ġdise": 8391,
      "urs": 8392,
      "icket": 8393,
      "Ġyesterday": 8394,
      "ĠIvan": 8395,
      "Ġrelying": 8396,
      "asm": 8397,
      "ĠCity": 8398,
      "ĠCong": 8399,
      "ĠSk": 8400,
      "ĠSl": 8401,
      "ĠSir": 8402,
      "ĠSign": 8403,
      "ĠSorry": 8404,
      "Ġeuro": 8405,
      "chan": 8406,
      "Ġisol": 8407,
      "owers": 8408,
      "Ġwhite": 8409,
      "ĠMKM": 8410,
      "iders": 8411,
      "idel": 8412,
      "cell": 8413,
      "ĠDC": 8414,
      "ĠDr": 8415,
      "ĠDue": 8416,
      "ĠDrive": 8417,
      "ĠDaniel": 8418,
      "Ġstick": 8419,
      "Ġproact": 8420,
      "Ġpropri": 8421,
      "ĠRam": 8422,
      "ĠRem": 8423,
      "ĠRouting": 8424,
      "ĠBaid": 8425,
      "ilit": 8426,
      "sson": 8427,
      "abit": 8428,
      "abler": 8429,
      "ĠWebe": 8430,
      "acle": 8431,
      "Ġ120": 8432,
      "ĠResources": 8433,
      "ĠSoC": 8434,
      "Ġorchest": 8435,
      "Ġ2022": 8436,
      "ĠHTC": 8437,
      "ĠFD": 8438,
      "ĠFish": 8439,
      "ĠFresh": 8440,
      "ĠAnthony": 8441,
      "Ġtrucks": 8442,
      "ecks": 8443,
      "ĠLuber": 8444,
      "ĠIncre": 8445,
      "Ġlibr": 8446,
      "Ġappetite": 8447,
      "Ġprefer": 8448,
      "Ġprevent": 8449,
      "Ġrecycl": 8450,
      "ĠVery": 8451,
      "anco": 8452,
      "ounce": 8453,
      "Ġanymore": 8454,
      "Ġtransfer": 8455,
      "Ġwhereas": 8456,
      "ĠStorage": 8457,
      "ĠStabler": 8458,
      "Ġdemands": 8459,
      "Ġ52": 8460,
      "ails": 8461,
      "Ġstartup": 8462,
      "Ġdownturn": 8463,
      "Ġwants": 8464,
      "lick": 8465,
      "Ġbackwards": 8466,
      "Ġfactored": 8467,
      "ĠDeferred": 8468,
      "Ġpointing": 8469,
      "Ġdifferential": 8470,
      "Ġexperiment": 8471,
      "Ġrealtime": 8472,
      "ĠReally": 8473,
      "ĠReback": 8474,
      "Ġbridge": 8475,
      "Ġteamwork": 8476,
      "Ġflowing": 8477,
      "Ġinterp": 8478,
      "ĠOnce": 8479,
      "ĠOracle": 8480,
      "mier": 8481,
      "Ġseller": 8482,
      "Ġrequiring": 8483,
      "1112": 8484,
      "Ġvariables": 8485,
      "Ġ140": 8486,
      "Ġevident": 8487,
      "Ġtelling": 8488,
      "Ġmainland": 8489,
      "Ġreferring": 8490,
      "Ġshowc": 8491,
      "Ġdesktops": 8492,
      "ĠAtif": 8493,
      "Ġformally": 8494,
      "Ġattend": 8495,
      "Ġattack": 8496,
      "Ġattending": 8497,
      "Ġcomparing": 8498,
      "Ġdistinct": 8499,
      "ĠShenoy": 8500,
      "Ġ170": 8501,
      "Ġcarefully": 8502,
      "Ġsheets": 8503,
      "Ġ08": 8504,
      "Ġquantitative": 8505,
      "Ġreplays": 8506,
      "Ġfavorite": 8507,
      "Ġtrials": 8508,
      "ĠEugene": 8509,
      "ĠStores": 8510,
      "Ġfacilit": 8511,
      "Ġpatients": 8512,
      "msley": 8513,
      "ĠSpain": 8514,
      "Ġcorrel": 8515,
      "Ġcorrelated": 8516,
      "Ġconstraint": 8517,
      "Ġdemonstrating": 8518,
      "Ġpopularity": 8519,
      "Ġtailored": 8520,
      "Ġcommunicated": 8521,
      "Ġimplementing": 8522,
      "ĠEricsson": 8523,
      "ĠWalmsley": 8524,
      "Ġdecelerated": 8525,
      "Ġphotos": 8526,
      "Ġminute": 8527,
      "Ġdescribe": 8528,
      "Ġdescribing": 8529,
      "Ġsuggests": 8530,
      "Ġobjections": 8531,
      "Ġappropriately": 8532,
      "Ġmigrations": 8533,
      "Ġdialing": 8534,
      "Ġsensitive": 8535,
      "Ġblended": 8536,
      "ĠTalent": 8537,
      "Ġprioritizing": 8538,
      "breaking": 8539,
      "Ġambitions": 8540,
      "Ġcaptured": 8541,
      "volatile": 8542,
      "Ġfinished": 8543,
      "Ġlumpiness": 8544,
      "Ġcarrier": 8545,
      "ĠBroadwell": 8546,
      "Raimo": 8547,
      "Ġmovie": 8548,
      "Ġmitigate": 8549,
      "Ġstabilize": 8550,
      "Ġcannibalization": 8551,
      "0820": 8552,
      "Ġmethods": 8553,
      "Ġaffordable": 8554,
      "ĠExpress": 8555,
      "Ġscientific": 8556,
      "ĠSMBs": 8557,
      "Ġstatus": 8558,
      "Ġprospects": 8559,
      "Ġloyalty": 8560,
      "ĠCentral": 8561,
      "Ġperception": 8562,
      "Ġpursuing": 8563,
      "ĠMichelle": 8564,
      "Ġaspir": 8565,
      "Ġcomprised": 8566,
      "ĠChristmas": 8567,
      "ĠTempe": 8568,
      "ĠRDNA": 8569,
      "Ġmega": 8570,
      "Ġdisplays": 8571,
      "Additionally": 8572,
      "ĠIMFT": 8573,
      "Ġheterogeneous": 8574,
      "Ġsociety": 8575,
      "ĠInclud": 8576,
      "Ġwidespread": 8577,
      "enabled": 8578,
      "Ġpione": 8579,
      "ĠCongress": 8580,
      "idelity": 8581,
      "ĠBaidu": 8582,
      "ĠWebex": 8583,
      "ĠLubert": 8584,
      "%-": 8585,
      "110": 8586,
      "83": 8587,
      "974": 8588,
      "BG": 8589,
      "BR": 8590,
      "DM": 8591,
      "EUV": 8592,
      "Given": 8593,
      "Ian": 8594,
      "Krish": 8595,
      "Mob": 8596,
      "Matt": 8597,
      "OVE": 8598,
      "Per": 8599,
      "QU": 8600,
      "RVIEW": 8601,
      "SW": 8602,
      "Ser": 8603,
      "Tristan": 8604,
      "UBG": 8605,
      "View": 8606,
      "cap": 8607,
      "cash": 8608,
      "dy": 8609,
      "dden": 8610,
      "free": 8611,
      "jam": 8612,
      "joining": 8613,
      "kerm": 8614,
      "lin": 8615,
      "lis": 8616,
      "lers": 8617,
      "rant": 8618,
      "ton": 8619,
      "uate": 8620,
      "with": 8621,
      "ym": 8622,
      "Ġing": 8623,
      "Ġill": 8624,
      "Ġtap": 8625,
      "Ġthrow": 8626,
      "erve": 8627,
      "Ġwider": 8628,
      "Ġcognitive": 8629,
      "ara": 8630,
      "Ġbo": 8631,
      "Ġbad": 8632,
      "Ġpicking": 8633,
      "Ġmust": 8634,
      "roduced": 8635,
      "Ġdates": 8636,
      "entless": 8637,
      "ĠAb": 8638,
      "llis": 8639,
      "urings": 8640,
      "Ġrevers": 8641,
      "Ġreference": 8642,
      "Ġreaction": 8643,
      "Ġreloc": 8644,
      "Ġrejoining": 8645,
      "ĠCS": 8646,
      "ĠCoun": 8647,
      "ĠCongratulations": 8648,
      "etary": 8649,
      "ĠSpect": 8650,
      "ĠSony": 8651,
      "ĠSimilar": 8652,
      "Ġease": 8653,
      "ques": 8654,
      "ush": 8655,
      "Ġours": 8656,
      "ĠTur": 8657,
      "ĠTop": 8658,
      "third": 8659,
      "ima": 8660,
      "ĠMod": 8661,
      "ĠMachine": 8662,
      "ĠMPC": 8663,
      "Ġaside": 8664,
      "ĠDet": 8665,
      "ĠDilut": 8666,
      "ĠDATA": 8667,
      "Ġconver": 8668,
      "Ġconven": 8669,
      "Ġstress": 8670,
      "Ġproport": 8671,
      "Ġproducing": 8672,
      "ĠRX": 8673,
      "ĠRest": 8674,
      "ĠRight": 8675,
      "riving": 8676,
      "ueView": 8677,
      "Ġanom": 8678,
      "ĠEA": 8679,
      "ĠEllis": 8680,
      "ĠIns": 8681,
      "ĠInit": 8682,
      "ĠPaid": 8683,
      "ĠPUBG": 8684,
      "ota": 8685,
      "otel": 8686,
      "ĠOS": 8687,
      "ĠOthers": 8688,
      "ĠBest": 8689,
      "ĠBrief": 8690,
      "ĠBrod": 8691,
      "ĠBerenberg": 8692,
      "Ġrating": 8693,
      "Ġrational": 8694,
      "Ġrule": 8695,
      "key": 8696,
      "ĠGarch": 8697,
      "Ġcontrast": 8698,
      "Ġcontemplated": 8699,
      "ystal": 8700,
      "acket": 8701,
      "aples": 8702,
      "emer": 8703,
      "Ġincur": 8704,
      "Ġ130": 8705,
      "ĠHGX": 8706,
      "Ġdoor": 8707,
      "Ġaltern": 8708,
      "ĠFed": 8709,
      "ĠFace": 8710,
      "Ġaccurate": 8711,
      "Ġsudden": 8712,
      "ĠLTE": 8713,
      "Ġpoll": 8714,
      "Ġpockets": 8715,
      "Ġresource": 8716,
      "ĠJess": 8717,
      "Ġoutperformance": 8718,
      "Ġmechan": 8719,
      "ANCI": 8720,
      "Ġlevers": 8721,
      "Ġleaving": 8722,
      "Ġspect": 8723,
      "Ġpreferred": 8724,
      "ology": 8725,
      "ourced": 8726,
      "ĠDirectors": 8727,
      "Ġcontinually": 8728,
      "ĠUFS": 8729,
      "ellation": 8730,
      "Ġadditive": 8731,
      "ĠKuber": 8732,
      "ivas": 8733,
      "Ġworkplace": 8734,
      "Ġconsensus": 8735,
      "Ġgreatly": 8736,
      "These": 8737,
      "ĠiCloud": 8738,
      "203": 8739,
      "Ġrelentless": 8740,
      "pha": 8741,
      "Ġoffices": 8742,
      "Ġofficial": 8743,
      "ĠExper": 8744,
      "Ġbuildup": 8745,
      "ĠANSW": 8746,
      "Ġknows": 8747,
      "Ġprofiles": 8748,
      "Ġportfolios": 8749,
      "ultaneously": 8750,
      "Ġ99": 8751,
      "ĠAdithya": 8752,
      "ĠAdMob": 8753,
      "Ġprincipal": 8754,
      "ĠAPI": 8755,
      "Ġsmooth": 8756,
      "Ġembed": 8757,
      "Ġinstant": 8758,
      "redict": 8759,
      "Ġ85": 8760,
      "Ġsubsid": 8761,
      "ĠHeadcount": 8762,
      "Ġdecades": 8763,
      "Ġmidst": 8764,
      "ĠTherefore": 8765,
      "loaded": 8766,
      "ĠHugu": 8767,
      "ESTIONS": 8768,
      "Ġ408": 8769,
      "Ġgeographically": 8770,
      "Ġdefined": 8771,
      "ĠFinancials": 8772,
      "Ġsurface": 8773,
      "Ġfoundries": 8774,
      "taking": 8775,
      "ĠAssuming": 8776,
      "Ġbooked": 8777,
      "2414": 8778,
      "Ġcollaborative": 8779,
      "Ġanticipation": 8780,
      "ĠShould": 8781,
      "ĠUnified": 8782,
      "Ġalongside": 8783,
      "Ġstructures": 8784,
      "Ġnaturally": 8785,
      "Ġcapped": 8786,
      "ĠGenerated": 8787,
      "product": 8788,
      "Ġquantities": 8789,
      "Ġfulfilled": 8790,
      "ugg": 8791,
      "Ġprediction": 8792,
      "ĠAckerm": 8793,
      "Ġcontainer": 8794,
      "ĠTreasury": 8795,
      "Ġtraditionally": 8796,
      "Ġstandards": 8797,
      "ĠHomePod": 8798,
      "atism": 8799,
      "ĠBrand": 8800,
      "Ġunpredict": 8801,
      "Ġlanguages": 8802,
      "ĠEmil": 8803,
      "Ġpicked": 8804,
      "Adithya": 8805,
      "Ġpurpose": 8806,
      "Ġexcellence": 8807,
      "MicronTech": 8808,
      "Ġsample": 8809,
      "Ġtightly": 8810,
      "Ġphysics": 8811,
      "Ġpersonalized": 8812,
      "Ġmigrating": 8813,
      "Ġleverages": 8814,
      "Ġdatabases": 8815,
      "Ġwraps": 8816,
      "Heath": 8817,
      "ĠFortnite": 8818,
      "breed": 8819,
      "Ġassistance": 8820,
      "Ġaccording": 8821,
      "Ġaccordance": 8822,
      "ĠPreferred": 8823,
      "ĠPremium": 8824,
      "ĠSMT": 8825,
      "ĠDuval": 8826,
      "888": 8827,
      "ĠTrueView": 8828,
      "Ġgroceries": 8829,
      "Ġadvancing": 8830,
      "Ġdisruptions": 8831,
      "Ġselected": 8832,
      "ĠDeputy": 8833,
      "MMARY": 8834,
      "netes": 8835,
      "Ġholistically": 8836,
      "Ġbundle": 8837,
      "Ġgraphic": 8838,
      "Ġbeliefs": 8839,
      "Ġtechnique": 8840,
      "Ġtechniques": 8841,
      "Ġphilosophy": 8842,
      "Ġincentives": 8843,
      "Anthony": 8844,
      "ĠCIOs": 8845,
      "Ġratio": 8846,
      "ĠDevelopers": 8847,
      "Ġshelter": 8848,
      "ĠPhotos": 8849,
      "However": 8850,
      "enkata": 8851,
      "Ġdestination": 8852,
      "ĠUniversity": 8853,
      "Ġbusy": 8854,
      "ĠSouth": 8855,
      "Ġadministration": 8856,
      "Ġseriously": 8857,
      "ĠVirgin": 8858,
      "ĠStudio": 8859,
      "Ġparameters": 8860,
      "ĠConstellation": 8861,
      "FINANCI": 8862,
      "ught": 8863,
      "ĠSUMMARY": 8864,
      "ĠMainland": 8865,
      "Ġretirement": 8866,
      "ĠKristin": 8867,
      "ĠLaunched": 8868,
      "ĠSkype": 8869,
      "Ġproprietary": 8870,
      "OVERVIEW": 8871,
      "QUESTIONS": 8872,
      "lisher": 8873,
      "ĠCounsel": 8874,
      "ĠDiluted": 8875,
      "Ġproportion": 8876,
      "ĠGarcha": 8877,
      "ĠKubernetes": 8878,
      "ĠANSWERS": 8879,
      "ĠHuguet": 8880,
      "ĠAckerman": 8881,
      "Ġunpredictable": 8882,
      "FINANCIAL": 8883,
      "+,": 8884,
      "97": 8885,
      "900": 8886,
      "AA": 8887,
      "Do": 8888,
      "Gene": 8889,
      "Jason": 8890,
      "PV": 8891,
      "Part": 8892,
      "Reg": 8893,
      "Sports": 8894,
      "Tun": 8895,
      "VSS": 8896,
      "bound": 8897,
      "garn": 8898,
      "iet": 8899,
      "iences": 8900,
      "ji": 8901,
      "jwa": 8902,
      "kins": 8903,
      "mel": 8904,
      "oid": 8905,
      "pment": 8906,
      "rin": 8907,
      "sports": 8908,
      "uous": 8909,
      "vis": 8910,
      "wall": 8911,
      "inet": 8912,
      "inem": 8913,
      "Ġthus": 8914,
      "Ġsum": 8915,
      "Ġsend": 8916,
      "Ġscript": 8917,
      "Ġsits": 8918,
      "Ġcell": 8919,
      "Ġcited": 8920,
      "Ġinput": 8921,
      "Ġbi": 8922,
      "Ġbound": 8923,
      "Ġbump": 8924,
      "Ġbps": 8925,
      "alance": 8926,
      "alistic": 8927,
      "Ġfight": 8928,
      "Ġfits": 8929,
      "Ġpacket": 8930,
      "Ġmill": 8931,
      "Ġmem": 8932,
      "Ġmine": 8933,
      "Ġweather": 8934,
      "ĠAud": 8935,
      "ĠAgency": 8936,
      "Ġhub": 8937,
      "Ġrely": 8938,
      "ĠCal": 8939,
      "ĠMs": 8940,
      "ĠMob": 8941,
      "Ġquiet": 8942,
      "idney": 8943,
      "ĠDL": 8944,
      "ĠDisc": 8945,
      "Ġconv": 8946,
      "Ġconduct": 8947,
      "ests": 8948,
      "ĠRile": 8949,
      "ĠRonald": 8950,
      "Ġexists": 8951,
      "Ġdev": 8952,
      "advertising": 8953,
      "ĠEach": 8954,
      "Ġabc": 8955,
      "ĠPM": 8956,
      "ĠPoint": 8957,
      "ĠPeters": 8958,
      "ĠPosition": 8959,
      "ĠODM": 8960,
      "ĠBase": 8961,
      "period": 8962,
      "Ġrack": 8963,
      "Ġrigor": 8964,
      "keeping": 8965,
      "ulting": 8966,
      "ĠGL": 8967,
      "ĠGoog": 8968,
      "ĠGFN": 8969,
      "Ġshelf": 8970,
      "Ġexport": 8971,
      "ĠNaples": 8972,
      "emmel": 8973,
      "Ġincorporate": 8974,
      "ander": 8975,
      "anded": 8976,
      "ĠHi": 8977,
      "ĠHemmel": 8978,
      "ichung": 8979,
      "Ġoverwh": 8980,
      "Ġsufficient": 8981,
      "ĠLloyd": 8982,
      "Ġ350": 8983,
      "Ġexpects": 8984,
      "Ġpod": 8985,
      "Ġpervas": 8986,
      "Ġplacing": 8987,
      "Ġnotably": 8988,
      "Ġpartly": 8989,
      "Ġincrementally": 8990,
      "Ġspans": 8991,
      "Ġreclass": 8992,
      "Ġunlike": 8993,
      "Ġunreal": 8994,
      "Ġagre": 8995,
      "ĠYoussef": 8996,
      "bell": 8997,
      "Ġ4000": 8998,
      "ĠKrish": 8999
    },
    "merges": [
      [
        "-",
        "-"
      ],
      [
        "--",
        "--"
      ],
      [
        "----",
        "----"
      ],
      [
        "Ġ",
        "t"
      ],
      [
        "--------",
        "--------"
      ],
      [
        "i",
        "n"
      ],
      [
        "Ġ",
        "a"
      ],
      [
        "Ġt",
        "h"
      ],
      [
        "=",
        "="
      ],
      [
        "e",
        "r"
      ],
      [
        "o",
        "n"
      ],
      [
        "r",
        "e"
      ],
      [
        "----------------",
        "----------------"
      ],
      [
        "Ġ",
        "w"
      ],
      [
        "Ġ",
        "o"
      ],
      [
        "a",
        "t"
      ],
      [
        "e",
        "n"
      ],
      [
        "Ġ",
        "s"
      ],
      [
        "Ġth",
        "e"
      ],
      [
        "Ġ",
        "c"
      ],
      [
        "n",
        "d"
      ],
      [
        "a",
        "r"
      ],
      [
        "o",
        "r"
      ],
      [
        "e",
        "s"
[...]
